{
  "vocab_size": 16000,
  "token2id": {
    "<pad>": 0,
    "<bos>": 1,
    "<eos>": 2,
    "<unk>": 3,
    "<user>": 4,
    "<assistant>": 5,
    "<think>": 6,
    "</think>": 7,
    "\u0001</w>": 8,
    "\u0002</w>": 9,
    "\u0003": 10,
    "\u0003</w>": 11,
    "\u0004": 12,
    "\u0007": 13,
    "\u0007</w>": 14,
    "!": 15,
    "!</w>": 16,
    "\"": 17,
    "\"</w>": 18,
    "#": 19,
    "#</w>": 20,
    "$": 21,
    "$</w>": 22,
    "%": 23,
    "%</w>": 24,
    "&": 25,
    "&</w>": 26,
    "'": 27,
    "'</w>": 28,
    "(": 29,
    "(</w>": 30,
    ")": 31,
    ")</w>": 32,
    "*": 33,
    "*</w>": 34,
    "+": 35,
    "+</w>": 36,
    ",": 37,
    ",</w>": 38,
    "-": 39,
    "-</w>": 40,
    ".": 41,
    ".</w>": 42,
    "/": 43,
    "/</w>": 44,
    "0": 45,
    "0</w>": 46,
    "1": 47,
    "1</w>": 48,
    "2": 49,
    "2</w>": 50,
    "3": 51,
    "3</w>": 52,
    "4": 53,
    "4</w>": 54,
    "5": 55,
    "5</w>": 56,
    "6": 57,
    "6</w>": 58,
    "7": 59,
    "7</w>": 60,
    "8": 61,
    "8</w>": 62,
    "9": 63,
    "9</w>": 64,
    ":": 65,
    ":</w>": 66,
    ";": 67,
    ";</w>": 68,
    "<": 69,
    "<</w>": 70,
    "=": 71,
    "=</w>": 72,
    ">": 73,
    "></w>": 74,
    "?": 75,
    "?</w>": 76,
    "@": 77,
    "@</w>": 78,
    "A": 79,
    "A</w>": 80,
    "B": 81,
    "B</w>": 82,
    "C": 83,
    "C</w>": 84,
    "D": 85,
    "D</w>": 86,
    "E": 87,
    "E</w>": 88,
    "F": 89,
    "F</w>": 90,
    "G": 91,
    "G</w>": 92,
    "H": 93,
    "H</w>": 94,
    "I": 95,
    "I</w>": 96,
    "J": 97,
    "J</w>": 98,
    "K": 99,
    "K</w>": 100,
    "L": 101,
    "L</w>": 102,
    "M": 103,
    "M</w>": 104,
    "N": 105,
    "N</w>": 106,
    "O": 107,
    "O</w>": 108,
    "P": 109,
    "P</w>": 110,
    "Q": 111,
    "Q</w>": 112,
    "R": 113,
    "R</w>": 114,
    "S": 115,
    "S</w>": 116,
    "T": 117,
    "T</w>": 118,
    "U": 119,
    "U</w>": 120,
    "V": 121,
    "V</w>": 122,
    "W": 123,
    "W</w>": 124,
    "X": 125,
    "X</w>": 126,
    "Y": 127,
    "Y</w>": 128,
    "Z": 129,
    "Z</w>": 130,
    "[": 131,
    "[</w>": 132,
    "\\": 133,
    "\\</w>": 134,
    "]": 135,
    "]</w>": 136,
    "^": 137,
    "^</w>": 138,
    "_": 139,
    "_</w>": 140,
    "`": 141,
    "`</w>": 142,
    "a": 143,
    "a</w>": 144,
    "b": 145,
    "b</w>": 146,
    "c": 147,
    "c</w>": 148,
    "d": 149,
    "d</w>": 150,
    "e": 151,
    "e</w>": 152,
    "f": 153,
    "f</w>": 154,
    "g": 155,
    "g</w>": 156,
    "h": 157,
    "h</w>": 158,
    "i": 159,
    "i</w>": 160,
    "j": 161,
    "j</w>": 162,
    "k": 163,
    "k</w>": 164,
    "l": 165,
    "l</w>": 166,
    "m": 167,
    "m</w>": 168,
    "n": 169,
    "n</w>": 170,
    "o": 171,
    "o</w>": 172,
    "p": 173,
    "p</w>": 174,
    "q": 175,
    "q</w>": 176,
    "r": 177,
    "r</w>": 178,
    "s": 179,
    "s</w>": 180,
    "t": 181,
    "t</w>": 182,
    "u": 183,
    "u</w>": 184,
    "v": 185,
    "v</w>": 186,
    "w": 187,
    "w</w>": 188,
    "x": 189,
    "x</w>": 190,
    "y": 191,
    "y</w>": 192,
    "z": 193,
    "z</w>": 194,
    "{": 195,
    "{</w>": 196,
    "|": 197,
    "|</w>": 198,
    "}": 199,
    "}</w>": 200,
    "~": 201,
    "~</w>": 202,
    "</w>": 203,
    "¡": 204,
    "£": 205,
    "¥": 206,
    "§": 207,
    "§</w>": 208,
    "¬": 209,
    "­": 210,
    "®</w>": 211,
    "°": 212,
    "°</w>": 213,
    "±": 214,
    "±</w>": 215,
    "²": 216,
    "²</w>": 217,
    "³": 218,
    "³</w>": 219,
    "´": 220,
    "·": 221,
    "·</w>": 222,
    "º": 223,
    "¼</w>": 224,
    "½</w>": 225,
    "¾</w>": 226,
    "¿": 227,
    "À</w>": 228,
    "Å": 229,
    "É": 230,
    "Ö": 231,
    "×": 232,
    "×</w>": 233,
    "Ü": 234,
    "à</w>": 235,
    "á": 236,
    "á</w>": 237,
    "â": 238,
    "ã": 239,
    "ä": 240,
    "æ": 241,
    "ç": 242,
    "è": 243,
    "è</w>": 244,
    "é": 245,
    "é</w>": 246,
    "ê": 247,
    "ë": 248,
    "ë</w>": 249,
    "ì": 250,
    "í": 251,
    "í</w>": 252,
    "î": 253,
    "ï": 254,
    "ñ": 255,
    "ó": 256,
    "ó</w>": 257,
    "ô": 258,
    "ö": 259,
    "ö</w>": 260,
    "÷": 261,
    "÷</w>": 262,
    "ø": 263,
    "ù</w>": 264,
    "ú": 265,
    "û": 266,
    "ü": 267,
    "ā": 268,
    "ā</w>": 269,
    "ă": 270,
    "ğ": 271,
    "Ō": 272,
    "ō": 273,
    "ō</w>": 274,
    "ǎ": 275,
    "ǐ</w>": 276,
    "ǔ": 277,
    "ș": 278,
    "ə</w>": 279,
    "ɪ": 280,
    "ɹ": 281,
    "ʿ": 282,
    "ˈ": 283,
    "˚": 284,
    "˚</w>": 285,
    "̦": 286,
    "̦</w>": 287,
    "͡": 288,
    "Δ": 289,
    "Ε": 290,
    "Μ": 291,
    "Σ": 292,
    "ή</w>": 293,
    "ί": 294,
    "α</w>": 295,
    "β": 296,
    "γ": 297,
    "η": 298,
    "θ": 299,
    "θ</w>": 300,
    "ι": 301,
    "κ": 302,
    "λ": 303,
    "λ</w>": 304,
    "ν": 305,
    "ο": 306,
    "π": 307,
    "π</w>": 308,
    "σ": 309,
    "υ": 310,
    "ᵒ": 311,
    "​": 312,
    "​</w>": 313,
    "‎": 314,
    "‐</w>": 315,
    "‑": 316,
    "–": 317,
    "–</w>": 318,
    "—": 319,
    "—</w>": 320,
    "―</w>": 321,
    "‘": 322,
    "’": 323,
    "’</w>": 324,
    "“": 325,
    "”": 326,
    "”</w>": 327,
    "•": 328,
    "•</w>": 329,
    "…": 330,
    "…</w>": 331,
    "⁄": 332,
    "⁴</w>": 333,
    "⁵</w>": 334,
    "⁷": 335,
    "⁷</w>": 336,
    "⁻": 337,
    "₁": 338,
    "₂": 339,
    "€": 340,
    "℃": 341,
    "℃</w>": 342,
    "℉": 343,
    "™</w>": 344,
    "⅔</w>": 345,
    "⅛</w>": 346,
    "←</w>": 347,
    "→</w>": 348,
    "⇒</w>": 349,
    "∃": 350,
    "−": 351,
    "−</w>": 352,
    "√": 353,
    "√</w>": 354,
    "∞</w>": 355,
    "∠": 356,
    "∧</w>": 357,
    "∨</w>": 358,
    "∪</w>": 359,
    "≠</w>": 360,
    "≥</w>": 361,
    "⋅": 362,
    "─": 363,
    "│</w>": 364,
    "┌": 365,
    "└": 366,
    "═": 367,
    "║</w>": 368,
    "╔": 369,
    "╗</w>": 370,
    "╚": 371,
    "╝</w>": 372,
    "╠": 373,
    "╣</w>": 374,
    "╦": 375,
    "╩": 376,
    "╬": 377,
    "█": 378,
    "█</w>": 379,
    "▸</w>": 380,
    "►</w>": 381,
    "★": 382,
    "★</w>": 383,
    "☠": 384,
    "♭": 385,
    "♭</w>": 386,
    "✔</w>": 387,
    "✨": 388,
    "❤": 389,
    "⭐": 390,
    "、": 391,
    "。</w>": 392,
    "あ": 393,
    "い": 394,
    "お": 395,
    "か": 396,
    "が": 397,
    "き": 398,
    "く": 399,
    "こ": 400,
    "し": 401,
    "す": 402,
    "た": 403,
    "だ": 404,
    "ち": 405,
    "っ": 406,
    "つ": 407,
    "で": 408,
    "な": 409,
    "に": 410,
    "の": 411,
    "は": 412,
    "ま": 413,
    "も": 414,
    "り": 415,
    "を": 416,
    "ん": 417,
    "一": 418,
    "下": 419,
    "不": 420,
    "个": 421,
    "为": 422,
    "人": 423,
    "今": 424,
    "他": 425,
    "以": 426,
    "们": 427,
    "但": 428,
    "何": 429,
    "作": 430,
    "你": 431,
    "優": 432,
    "元": 433,
    "光": 434,
    "准": 435,
    "前": 436,
    "去": 437,
    "友": 438,
    "可": 439,
    "名": 440,
    "吧</w>": 441,
    "在": 442,
    "坚": 443,
    "夕": 444,
    "外": 445,
    "多": 446,
    "夜": 447,
    "夢": 448,
    "女": 449,
    "好": 450,
    "好</w>": 451,
    "存": 452,
    "它": 453,
    "师</w>": 454,
    "師": 455,
    "強": 456,
    "形": 457,
    "彼": 458,
    "思": 459,
    "性</w>": 460,
    "懈": 461,
    "我": 462,
    "持": 463,
    "探": 464,
    "教": 465,
    "文": 466,
    "斗": 467,
    "无": 468,
    "日": 469,
    "是</w>": 470,
    "曾": 471,
    "月": 472,
    "朋": 473,
    "正": 474,
    "気": 475,
    "水": 476,
    "永": 477,
    "海": 478,
    "滩": 479,
    "生": 480,
    "由": 481,
    "白": 482,
    "的": 483,
    "确": 484,
    "秀": 485,
    "私": 486,
    "空": 487,
    "经": 488,
    "老": 489,
    "自": 490,
    "色": 491,
    "花</w>": 492,
    "苦": 493,
    "英": 494,
    "行": 495,
    "见": 496,
    "让": 497,
    "议": 498,
    "远": 499,
    "采": 500,
    "量": 501,
    "長": 502,
    "難": 503,
    "雨": 504,
    "面": 505,
    "食": 506,
    "기</w>": 507,
    "보": 508,
    "장": 509,
    "️": 510,
    "️</w>": 511,
    "，": 512,
    "？</w>": 513,
    "￼": 514,
    "🌃": 515,
    "🌏</w>": 516,
    "🌟</w>": 517,
    "🍩": 518,
    "🍩</w>": 519,
    "🎉": 520,
    "🎉</w>": 521,
    "🏻": 522,
    "🏼</w>": 523,
    "🐈</w>": 524,
    "🐥</w>": 525,
    "🐮</w>": 526,
    "👇</w>": 527,
    "👌": 528,
    "👠</w>": 529,
    "💃": 530,
    "💕</w>": 531,
    "💚</w>": 532,
    "💯</w>": 533,
    "🕺": 534,
    "😀</w>": 535,
    "😆</w>": 536,
    "😈</w>": 537,
    "😉</w>": 538,
    "😎": 539,
    "😔</w>": 540,
    "🚢</w>": 541,
    "🤔</w>": 542,
    "🤤</w>": 543,
    "🤩": 544,
    "🤩</w>": 545,
    "🧣</w>": 546,
    "🧤</w>": 547,
    "🧥</w>": 548,
    "th": 549,
    "in": 550,
    "an": 551,
    "the</w>": 552,
    "at": 553,
    "re": 554,
    "en": 555,
    "er": 556,
    "on": 557,
    "and</w>": 558,
    "ar": 559,
    "st": 560,
    "ing</w>": 561,
    "it": 562,
    "or": 563,
    "al": 564,
    "to</w>": 565,
    "ou": 566,
    "of</w>": 567,
    "es": 568,
    "is</w>": 569,
    "er</w>": 570,
    "ti": 571,
    "ro": 572,
    "ed</w>": 573,
    "es</w>": 574,
    "ic": 575,
    "on</w>": 576,
    "ac": 577,
    "in</w>": 578,
    "le": 579,
    "om": 580,
    "at</w>": 581,
    "or</w>": 582,
    "an</w>": 583,
    "el": 584,
    "as": 585,
    "al</w>": 586,
    "ec": 587,
    "ate</w>": 588,
    "Th": 589,
    "ati": 590,
    "lo": 591,
    "us": 592,
    "li": 593,
    "ent": 594,
    "as</w>": 595,
    "ur": 596,
    "il": 597,
    "pro": 598,
    "ve</w>": 599,
    "pl": 600,
    "di": 601,
    "ol": 602,
    "ri": 603,
    "et": 604,
    "qu": 605,
    "ul": 606,
    "ab": 607,
    "en</w>": 608,
    "for</w>": 609,
    "s.</w>": 610,
    "si": 611,
    "am": 612,
    "The</w>": 613,
    "uc": 614,
    "vi": 615,
    "em": 616,
    "s,</w>": 617,
    "ag": 618,
    "ex": 619,
    "wh": 620,
    "ap": 621,
    "ch": 622,
    "com": 623,
    "e.</w>": 624,
    "that</w>": 625,
    "un": 626,
    "y.</w>": 627,
    "are</w>": 628,
    "po": 629,
    "con": 630,
    "ing": 631,
    "ith</w>": 632,
    "ad": 633,
    "enc": 634,
    "sh": 635,
    "with</w>": 636,
    "de": 637,
    "le</w>": 638,
    "ak": 639,
    "ent</w>": 640,
    "be</w>": 641,
    "im": 642,
    "res": 643,
    "ly</w>": 644,
    "ver": 645,
    "um": 646,
    "ion": 647,
    "est": 648,
    "ff": 649,
    "wor": 650,
    "mo": 651,
    "can</w>": 652,
    "ne": 653,
    "tr": 654,
    "ation": 655,
    "the": 656,
    "per": 657,
    "no": 658,
    "gh": 659,
    "Wh": 660,
    "ut": 661,
    "ed": 662,
    "oun": 663,
    "ation</w>": 664,
    "ld</w>": 665,
    "e,</w>": 666,
    "y,</w>": 667,
    "int": 668,
    "it</w>": 669,
    "is": 670,
    "for": 671,
    "op": 672,
    "lear": 673,
    "What</w>": 674,
    "ha": 675,
    "by</w>": 676,
    "oo": 677,
    "low": 678,
    "sp": 679,
    "ang": 680,
    "ould</w>": 681,
    "cre": 682,
    "str": 683,
    "st</w>": 684,
    "se": 685,
    "es.</w>": 686,
    "su": 687,
    "be": 688,
    "de</w>": 689,
    "tion": 690,
    "quest": 691,
    "cul": 692,
    "gi": 693,
    "out</w>": 694,
    "comp": 695,
    "ay</w>": 696,
    "we": 697,
    "wer</w>": 698,
    "ts</w>": 699,
    "our</w>": 700,
    "duc": 701,
    "cl": 702,
    "ans": 703,
    "ers</w>": 704,
    "ou</w>": 705,
    "ener": 706,
    "ly.</w>": 707,
    "ces": 708,
    "oc": 709,
    "ence</w>": 710,
    "tim": 711,
    "fi": 712,
    "ren": 713,
    "iz": 714,
    "ake</w>": 715,
    "ity</w>": 716,
    "gr": 717,
    "ore</w>": 718,
    "ir</w>": 719,
    "he": 720,
    "es,</w>": 721,
    "ven</w>": 722,
    "ar</w>": 723,
    "you</w>": 724,
    "rom</w>": 725,
    "was</w>": 726,
    "anc": 727,
    "ure</w>": 728,
    "se</w>": 729,
    "co": 730,
    "dat": 731,
    "question": 732,
    "from</w>": 733,
    "alcul": 734,
    "hel": 735,
    "enti": 736,
    "me": 737,
    "ds</w>": 738,
    "ain</w>": 739,
    "ay": 740,
    "us</w>": 741,
    "able</w>": 742,
    "to": 743,
    "iti": 744,
    "all": 745,
    "ther</w>": 746,
    "alculate</w>": 747,
    "ust": 748,
    "our": 749,
    "so</w>": 750,
    "ath</w>": 751,
    "ine</w>": 752,
    "clear": 753,
    "'s</w>": 754,
    "fol": 755,
    "tion</w>": 756,
    "Calculate</w>": 757,
    "suc": 758,
    "sent": 759,
    "lowing</w>": 760,
    "answer</w>": 761,
    "state</w>": 762,
    "ort": 763,
    "age</w>": 764,
    "question.</w>": 765,
    "ding</w>": 766,
    "clearly.</w>": 767,
    "ain": 768,
    "Math</w>": 769,
    "ure": 770,
    "their</w>": 771,
    "fe": 772,
    "bo": 773,
    "ment": 774,
    "pe": 775,
    "als</w>": 776,
    "one</w>": 777,
    "hi": 778,
    "ple</w>": 779,
    "ter": 780,
    "It</w>": 781,
    "ite</w>": 782,
    "tw": 783,
    "ir": 784,
    "rec": 785,
    "est</w>": 786,
    "more</w>": 787,
    "following</w>": 788,
    "form": 789,
    "ere</w>": 790,
    "have</w>": 791,
    "about</w>": 792,
    "all</w>": 793,
    "are": 794,
    "et</w>": 795,
    "used</w>": 796,
    "th</w>": 797,
    "ant</w>": 798,
    "vel": 799,
    "cri": 800,
    "ow</w>": 801,
    "has</w>": 802,
    "equ": 803,
    "ut</w>": 804,
    "ic</w>": 805,
    "cont": 806,
    "its</w>": 807,
    "ph": 808,
    "ical</w>": 809,
    "min": 810,
    "mar": 811,
    "sy": 812,
    "your</w>": 813,
    "such</w>": 814,
    "ks</w>": 815,
    "ser": 816,
    "ght</w>": 817,
    "imp": 818,
    "ustom": 819,
    "ect": 820,
    "do": 821,
    "der": 822,
    "use</w>": 823,
    "ial</w>": 824,
    "av": 825,
    "ter</w>": 826,
    "sc": 827,
    "also</w>": 828,
    "man": 829,
    "des": 830,
    "custom": 831,
    "par": 832,
    "gy</w>": 833,
    "ig": 834,
    "ver</w>": 835,
    "tic": 836,
    "cap": 837,
    "ition": 838,
    "ast": 839,
    "id": 840,
    "ing.</w>": 841,
    "ated</w>": 842,
    "te": 843,
    "ess": 844,
    "this</w>": 845,
    "ill</w>": 846,
    "ich</w>": 847,
    "and": 848,
    "ame</w>": 849,
    "num": 850,
    "In": 851,
    "ing,</w>": 852,
    "enerate</w>": 853,
    "given</w>": 854,
    "produc": 855,
    "provi": 856,
    "eff": 857,
    "fu": 858,
    "diff": 859,
    "fin": 860,
    "cess</w>": 861,
    "ning</w>": 862,
    "ant": 863,
    "up</w>": 864,
    "acc": 865,
    "data</w>": 866,
    "ech": 867,
    "ally</w>": 868,
    "ep": 869,
    "bet": 870,
    "ear": 871,
    "sentence</w>": 872,
    "vic": 873,
    "ase</w>": 874,
    "ud": 875,
    "pre": 876,
    "ach": 877,
    "should</w>": 878,
    "pos": 879,
    "ome</w>": 880,
    "end": 881,
    "This</w>": 882,
    "pr": 883,
    "two</w>": 884,
    "of": 885,
    "ve": 886,
    "he</w>": 887,
    "which</w>": 888,
    "ment</w>": 889,
    "make</w>": 890,
    "incl": 891,
    "fac": 892,
    "comm": 893,
    "ous</w>": 894,
    "ith": 895,
    "stor": 896,
    "5.</w>": 897,
    "new</w>": 898,
    "gre": 899,
    "ev": 900,
    "ess</w>": 901,
    "ital</w>": 902,
    "pon": 903,
    "d.</w>": 904,
    "pres": 905,
    "arg": 906,
    "ect</w>": 907,
    "ill": 908,
    "gh</w>": 909,
    "yp": 910,
    "2.</w>": 911,
    "10": 912,
    "other</w>": 913,
    "ni": 914,
    "br": 915,
    "numb": 916,
    "ful": 917,
    "ting</w>": 918,
    "go": 919,
    "into</w>": 920,
    "ach</w>": 921,
    "col": 922,
    "ele": 923,
    "sion": 924,
    "ce</w>": 925,
    "tiv": 926,
    "war": 927,
    "equals</w>": 928,
    "ree</w>": 929,
    "ating</w>": 930,
    "help": 931,
    "fy</w>": 932,
    "red</w>": 933,
    "Generate</w>": 934,
    "1.</w>": 935,
    "they</w>": 936,
    "syst": 937,
    "eng": 938,
    "Cre": 939,
    "t.</w>": 940,
    "inter": 941,
    "rite</w>": 942,
    "using</w>": 943,
    "lik": 944,
    "ile</w>": 945,
    "eci": 946,
    "fic": 947,
    "ful</w>": 948,
    "eren": 949,
    "Des": 950,
    "er.</w>": 951,
    "Pro": 952,
    "am</w>": 953,
    "ation.</w>": 954,
    "ch</w>": 955,
    "king</w>": 956,
    "ad</w>": 957,
    "ed.</w>": 958,
    "help</w>": 959,
    "differen": 960,
    "rou": 961,
    "inclu": 962,
    "ue</w>": 963,
    "ound</w>": 964,
    "tech": 965,
    "3.</w>": 966,
    "wn</w>": 967,
    "Create</w>": 968,
    "not</w>": 969,
    "jo": 970,
    "ving</w>": 971,
    "ased</w>": 972,
    "ey</w>": 973,
    "will</w>": 974,
    "Ad": 975,
    "ance</w>": 976,
    "assi": 977,
    "pri": 978,
    "up": 979,
    "struc": 980,
    "det": 981,
    "ally,</w>": 982,
    "what</w>": 983,
    "aking</w>": 984,
    "ma": 985,
    "inv": 986,
    "ents</w>": 987,
    "incre": 988,
    "gor": 989,
    "vir": 990,
    "ari": 991,
    "heal": 992,
    "would</w>": 993,
    "customer</w>": 994,
    "dition": 995,
    "rel": 996,
    "cribe</w>": 997,
    "typ": 998,
    "any</w>": 999,
    "sol": 1000,
    "ass": 1001,
    "reduc": 1002,
    "ra": 1003,
    "chang": 1004,
    "ative</w>": 1005,
    "An": 1006,
    "ations</w>": 1007,
    "ell": 1008,
    "--": 1009,
    "nolo": 1010,
    "ize</w>": 1011,
    "angu": 1012,
    "how</w>": 1013,
    "me</w>": 1014,
    "off": 1015,
    "sk": 1016,
    "list</w>": 1017,
    "like</w>": 1018,
    "exam": 1019,
    "plus</w>": 1020,
    "way</w>": 1021,
    "em</w>": 1022,
    "ip": 1023,
    "ood</w>": 1024,
    "import": 1025,
    "could</w>": 1026,
    "out": 1027,
    "a,</w>": 1028,
    "peri": 1029,
    "ate": 1030,
    "coun": 1031,
    "ici": 1032,
    "Ex": 1033,
    "cess": 1034,
    "had</w>": 1035,
    "Gi": 1036,
    "ack</w>": 1037,
    "gg": 1038,
    "Ch": 1039,
    "He</w>": 1040,
    "pers": 1041,
    "time</w>": 1042,
    "der</w>": 1043,
    "ween</w>": 1044,
    "tions</w>": 1045,
    "car": 1046,
    "between</w>": 1047,
    "tive</w>": 1048,
    "ast</w>": 1049,
    "ore": 1050,
    "ght": 1051,
    "ople</w>": 1052,
    "Re": 1053,
    "tri": 1054,
    "dis": 1055,
    "lif": 1056,
    "langu": 1057,
    "servic": 1058,
    "au": 1059,
    "ob": 1060,
    "most</w>": 1061,
    "4.</w>": 1062,
    "divi": 1063,
    "ong</w>": 1064,
    "do</w>": 1065,
    "tur": 1066,
    "bu": 1067,
    "ves</w>": 1068,
    "line</w>": 1069,
    "kno": 1070,
    "comput": 1071,
    "his</w>": 1072,
    "St": 1073,
    "val": 1074,
    "10</w>": 1075,
    "sentenc": 1076,
    "when</w>": 1077,
    "d,</w>": 1078,
    "sec": 1079,
    "app": 1080,
    "ail": 1081,
    "0.</w>": 1082,
    "capital</w>": 1083,
    "respon": 1084,
    "a.</w>": 1085,
    "technolo": 1086,
    "ell</w>": 1087,
    "ential</w>": 1088,
    "people</w>": 1089,
    "devel": 1090,
    "ep</w>": 1091,
    "ays</w>": 1092,
    "le,</w>": 1093,
    "throu": 1094,
    "bl": 1095,
    "who</w>": 1096,
    "Com": 1097,
    "impro": 1098,
    "In</w>": 1099,
    "ature": 1100,
    "inform": 1101,
    "wat": 1102,
    "tas": 1103,
    "ation,</w>": 1104,
    "sib": 1105,
    "le.</w>": 1106,
    "loc": 1107,
    "ist": 1108,
    "Fin": 1109,
    "abil": 1110,
    "ust</w>": 1111,
    "tex": 1112,
    "Describe</w>": 1113,
    "ded</w>": 1114,
    "ary</w>": 1115,
    "fl": 1116,
    "ene": 1117,
    "er,</w>": 1118,
    "three</w>": 1119,
    "aly": 1120,
    "Con": 1121,
    "than</w>": 1122,
    "cor": 1123,
    "act</w>": 1124,
    "put</w>": 1125,
    "under": 1126,
    "accur": 1127,
    "sa": 1128,
    "ace</w>": 1129,
    "ens": 1130,
    "plain</w>": 1131,
    "while</w>": 1132,
    "loo": 1133,
    "larg": 1134,
    "pa": 1135,
    "but</w>": 1136,
    "ice</w>": 1137,
    "mon": 1138,
    "pol": 1139,
    "entify</w>": 1140,
    "ort</w>": 1141,
    "bus": 1142,
    "20": 1143,
    "ural</w>": 1144,
    "hum": 1145,
    "bec": 1146,
    "if</w>": 1147,
    "experi": 1148,
    "her</w>": 1149,
    "ely</w>": 1150,
    "include</w>": 1151,
    "sion</w>": 1152,
    "mat": 1153,
    "s:</w>": 1154,
    "each</w>": 1155,
    "del": 1156,
    "progr": 1157,
    "learning</w>": 1158,
    "gan": 1159,
    "dic": 1160,
    "health": 1161,
    "sum": 1162,
    "sit": 1163,
    "energy</w>": 1164,
    "Write</w>": 1165,
    "ack": 1166,
    "adv": 1167,
    "work</w>": 1168,
    "mark": 1169,
    "char": 1170,
    "ow": 1171,
    "provide</w>": 1172,
    "work": 1173,
    "fri": 1174,
    "ors</w>": 1175,
    "eting</w>": 1176,
    "ities</w>": 1177,
    "viron": 1178,
    "mul": 1179,
    "end</w>": 1180,
    "different</w>": 1181,
    "lim": 1182,
    "ion</w>": 1183,
    "create</w>": 1184,
    "sm": 1185,
    "ement</w>": 1186,
    "reduce</w>": 1187,
    "my</w>": 1188,
    "plan": 1189,
    "AI</w>": 1190,
    "let": 1191,
    "busin": 1192,
    "gorith": 1193,
    "star": 1194,
    "through</w>": 1195,
    "ved</w>": 1196,
    "soc": 1197,
    "pot": 1198,
    "been</w>": 1199,
    "sel": 1200,
    "important</w>": 1201,
    "stud": 1202,
    "plic": 1203,
    "ick": 1204,
    "ies</w>": 1205,
    "number</w>": 1206,
    "lec": 1207,
    "environ": 1208,
    "ese</w>": 1209,
    "ces</w>": 1210,
    "ome": 1211,
    "Addition": 1212,
    "system": 1213,
    "On": 1214,
    "bre": 1215,
    "Additionally,</w>": 1216,
    "rit": 1217,
    "du": 1218,
    "ates</w>": 1219,
    "them</w>": 1220,
    "ong": 1221,
    "boo": 1222,
    "mean": 1223,
    "lin": 1224,
    "abl": 1225,
    "aut": 1226,
    "algorith": 1227,
    "over</w>": 1228,
    "vari": 1229,
    "take</w>": 1230,
    "underst": 1231,
    "row": 1232,
    "ze</w>": 1233,
    "ted</w>": 1234,
    "day</w>": 1235,
    "ge": 1236,
    "pp": 1237,
    "ble": 1238,
    "thing</w>": 1239,
    "care": 1240,
    "fr": 1241,
    "Us": 1242,
    "many</w>": 1243,
    "ms</w>": 1244,
    "cur": 1245,
    "reg": 1246,
    "ings</w>": 1247,
    "tre": 1248,
    "fun": 1249,
    "lig": 1250,
    "low</w>": 1251,
    "story</w>": 1252,
    "ity.</w>": 1253,
    "t,</w>": 1254,
    "commun": 1255,
    "ca": 1256,
    "word</w>": 1257,
    "19": 1258,
    "How</w>": 1259,
    "language</w>": 1260,
    "sur": 1261,
    "ub": 1262,
    "aw": 1263,
    "develop": 1264,
    "exp": 1265,
    "ther": 1266,
    "organ": 1267,
    "Given</w>": 1268,
    "tion.</w>": 1269,
    "effec": 1270,
    "id</w>": 1271,
    "She</w>": 1272,
    "web": 1273,
    "ited</w>": 1274,
    "onom": 1275,
    "ten</w>": 1276,
    "vie": 1277,
    "pul": 1278,
    "form</w>": 1279,
    "ke": 1280,
    "sof": 1281,
    "high": 1282,
    "based</w>": 1283,
    "put": 1284,
    "mil": 1285,
    "words</w>": 1286,
    "ign</w>": 1287,
    "ever": 1288,
    "e:</w>": 1289,
    "opp": 1290,
    "multi": 1291,
    "ways</w>": 1292,
    "al.</w>": 1293,
    "fir": 1294,
    "effici": 1295,
    "amm": 1296,
    "pur": 1297,
    "some": 1298,
    "new": 1299,
    "tho": 1300,
    "them": 1301,
    "ade</w>": 1302,
    "activ": 1303,
    "nat": 1304,
    "dec": 1305,
    "warm": 1306,
    "Un": 1307,
    "arr": 1308,
    "ed,</w>": 1309,
    "ages</w>": 1310,
    "el</w>": 1311,
    "They</w>": 1312,
    "charac": 1313,
    "ellig": 1314,
    "net": 1315,
    "proble": 1316,
    "requ": 1317,
    "conc": 1318,
    "some</w>": 1319,
    "ying</w>": 1320,
    "gn": 1321,
    "Gre": 1322,
    "ent.</w>": 1323,
    "spe": 1324,
    "speci": 1325,
    "analy": 1326,
    "bene": 1327,
    "set</w>": 1328,
    "achine</w>": 1329,
    "ide": 1330,
    "se.</w>": 1331,
    "il</w>": 1332,
    "tem": 1333,
    "ge</w>": 1334,
    "En": 1335,
    "we</w>": 1336,
    "person": 1337,
    "sour": 1338,
    "system</w>": 1339,
    "Jo": 1340,
    "Explain</w>": 1341,
    "um</w>": 1342,
    "appro": 1343,
    "popul": 1344,
    "loy": 1345,
    "__": 1346,
    "Ar": 1347,
    "Al": 1348,
    "Name</w>": 1349,
    "ange</w>": 1350,
    "fam": 1351,
    "eas": 1352,
    "deci": 1353,
    "ficial</w>": 1354,
    "get": 1355,
    "bi": 1356,
    "over": 1357,
    "give</w>": 1358,
    "ics</w>": 1359,
    "sci": 1360,
    "elec": 1361,
    "try</w>": 1362,
    "Res": 1363,
    "rest": 1364,
    "resul": 1365,
    "har": 1366,
    "medi": 1367,
    "ture": 1368,
    "da": 1369,
    "she</w>": 1370,
    "stat": 1371,
    "there</w>": 1372,
    "process": 1373,
    "De": 1374,
    "worl": 1375,
    "ments</w>": 1376,
    "20</w>": 1377,
    "with": 1378,
    "ability</w>": 1379,
    "User</w>": 1380,
    "ers.</w>": 1381,
    "\".</w>": 1382,
    "direc": 1383,
    "accurate</w>": 1384,
    "year": 1385,
    "process</w>": 1386,
    "five</w>": 1387,
    "ized</w>": 1388,
    "making</w>": 1389,
    "itive</w>": 1390,
    "find</w>": 1391,
    "dr": 1392,
    "ity,</w>": 1393,
    "need</w>": 1394,
    "minus</w>": 1395,
    "ture</w>": 1396,
    "anim": 1397,
    "inte": 1398,
    "technology</w>": 1399,
    "potential</w>": 1400,
    "example</w>": 1401,
    "main</w>": 1402,
    "att": 1403,
    "artic": 1404,
    "prot": 1405,
    "ist</w>": 1406,
    "ho": 1407,
    "write</w>": 1408,
    "pow": 1409,
    "get</w>": 1410,
    "sible</w>": 1411,
    "ily</w>": 1412,
    "top": 1413,
    "bel": 1414,
    "eri": 1415,
    "consi": 1416,
    "ition</w>": 1417,
    "order</w>": 1418,
    "environment": 1419,
    "offer</w>": 1420,
    "ety</w>": 1421,
    "invol": 1422,
    "'t</w>": 1423,
    "being</w>": 1424,
    "world</w>": 1425,
    "econom": 1426,
    "nam": 1427,
    "tern": 1428,
    "better</w>": 1429,
    "uses</w>": 1430,
    "crip": 1431,
    "where</w>": 1432,
    "set": 1433,
    "were</w>": 1434,
    "nec": 1435,
    "both</w>": 1436,
    "sing</w>": 1437,
    "type</w>": 1438,
    "read": 1439,
    "access</w>": 1440,
    "item": 1441,
    "ically</w>": 1442,
    "but": 1443,
    "aph": 1444,
    "ys": 1445,
    "then</w>": 1446,
    "best</w>": 1447,
    "ign": 1448,
    "arti": 1449,
    "I'": 1450,
    "inc": 1451,
    "text</w>": 1452,
    "6.</w>": 1453,
    "’s</w>": 1454,
    "you": 1455,
    "times</w>": 1456,
    "atures</w>": 1457,
    "mer": 1458,
    "sub": 1459,
    "applic": 1460,
    "fore": 1461,
    "life</w>": 1462,
    "play": 1463,
    "ds.</w>": 1464,
    "uring</w>": 1465,
    "te</w>": 1466,
    "buil": 1467,
    "lob": 1468,
    "intellig": 1469,
    "social</w>": 1470,
    "ution</w>": 1471,
    "softw": 1472,
    "communic": 1473,
    "mi": 1474,
    "tu": 1475,
    "trans": 1476,
    "light</w>": 1477,
    "so": 1478,
    "foc": 1479,
    "50</w>": 1480,
    "Id": 1481,
    "fully</w>": 1482,
    "vers": 1483,
    "educ": 1484,
    "jec": 1485,
    "question</w>": 1486,
    "log": 1487,
    "improve</w>": 1488,
    "ational</w>": 1489,
    "dri": 1490,
    "benef": 1491,
    "may</w>": 1492,
    "fo": 1493,
    "uni": 1494,
    "op</w>": 1495,
    "ise</w>": 1496,
    "water</w>": 1497,
    "around</w>": 1498,
    "dep": 1499,
    "del</w>": 1500,
    "Joh": 1501,
    "We</w>": 1502,
    "cho": 1503,
    "ature</w>": 1504,
    "mem": 1505,
    "retur": 1506,
    "emp": 1507,
    "ei": 1508,
    "ert": 1509,
    "cle": 1510,
    "natural</w>": 1511,
    "Identify</w>": 1512,
    "ugg": 1513,
    "come</w>": 1514,
    "online</w>": 1515,
    "sen": 1516,
    "made</w>": 1517,
    "need": 1518,
    "experienc": 1519,
    "ked</w>": 1520,
    "well</w>": 1521,
    "lic</w>": 1522,
    "sure</w>": 1523,
    "friend": 1524,
    "Ne": 1525,
    "product</w>": 1526,
    "ject</w>": 1527,
    "lab": 1528,
    "first</w>": 1529,
    "clo": 1530,
    "lows</w>": 1531,
    "ality</w>": 1532,
    "sal": 1533,
    "model</w>": 1534,
    "Find</w>": 1535,
    "vide</w>": 1536,
    "regul": 1537,
    "machine</w>": 1538,
    "----": 1539,
    "ful,</w>": 1540,
    "computer</w>": 1541,
    "it.</w>": 1542,
    "Cl": 1543,
    "resour": 1544,
    "supp": 1545,
    "icul": 1546,
    "country</w>": 1547,
    "lobal</w>": 1548,
    "information</w>": 1549,
    "expl": 1550,
    "hy": 1551,
    "large</w>": 1552,
    "k.</w>": 1553,
    "limate</w>": 1554,
    "akes</w>": 1555,
    "ers,</w>": 1556,
    "int</w>": 1557,
    "quick": 1558,
    "sts</w>": 1559,
    "actic": 1560,
    "valu": 1561,
    "ta": 1562,
    "often</w>": 1563,
    "strate": 1564,
    "aining</w>": 1565,
    "old</w>": 1566,
    "dist": 1567,
    "asks</w>": 1568,
    "aff": 1569,
    "ty</w>": 1570,
    "tic</w>": 1571,
    "30</w>": 1572,
    "des</w>": 1573,
    "win": 1574,
    "art</w>": 1575,
    "00": 1576,
    "writ": 1577,
    "pose</w>": 1578,
    "know": 1579,
    "human</w>": 1580,
    "model": 1581,
    "ount</w>": 1582,
    "right</w>": 1583,
    "exc": 1584,
    "e-": 1585,
    "mp": 1586,
    "ons</w>": 1587,
    "great</w>": 1588,
    "ress</w>": 1589,
    "func": 1590,
    "very</w>": 1591,
    "no</w>": 1592,
    "Provide</w>": 1593,
    "ject": 1594,
    "phys": 1595,
    "comple": 1596,
    "les</w>": 1597,
    "person</w>": 1598,
    "tion,</w>": 1599,
    "lied</w>": 1600,
    "movi": 1601,
    "lead": 1602,
    "fic</w>": 1603,
    "step": 1604,
    "user</w>": 1605,
    "can": 1606,
    "dividu": 1607,
    "gener": 1608,
    "plac": 1609,
    "list": 1610,
    "good</w>": 1611,
    "back</w>": 1612,
    "predic": 1613,
    "perform": 1614,
    "ris": 1615,
    "wa": 1616,
    "change</w>": 1617,
    "anding</w>": 1618,
    "met": 1619,
    "phr": 1620,
    "divided</w>": 1621,
    "ghts</w>": 1622,
    "hou": 1623,
    "air</w>": 1624,
    "100</w>": 1625,
    "correc": 1626,
    "age.</w>": 1627,
    "Comp": 1628,
    "ent,</w>": 1629,
    "7.</w>": 1630,
    "af": 1631,
    "ory</w>": 1632,
    "algorithm</w>": 1633,
    "toge": 1634,
    "article</w>": 1635,
    "Tr": 1636,
    "individu": 1637,
    "only</w>": 1638,
    "ds,</w>": 1639,
    "place</w>": 1640,
    "I'm</w>": 1641,
    "temper": 1642,
    "less</w>": 1643,
    "curren": 1644,
    "gu": 1645,
    "Respon": 1646,
    "cour": 1647,
    "sions</w>": 1648,
    "input</w>": 1649,
    "increase</w>": 1650,
    "compan": 1651,
    "dig": 1652,
    "One</w>": 1653,
    "manag": 1654,
    "long": 1655,
    "ations.</w>": 1656,
    "software</w>": 1657,
    "self": 1658,
    "even</w>": 1659,
    "autom": 1660,
    "point": 1661,
    "food</w>": 1662,
    "increas": 1663,
    "ali": 1664,
    "help.</w>": 1665,
    "ples</w>": 1666,
    "deter": 1667,
    "pi": 1668,
    "mis": 1669,
    "For</w>": 1670,
    "prof": 1671,
    "direct": 1672,
    "power</w>": 1673,
    "shi": 1674,
    "service</w>": 1675,
    "vo": 1676,
    "ship": 1677,
    "carefully</w>": 1678,
    "identify</w>": 1679,
    "issu": 1680,
    "ly,</w>": 1681,
    "Respond</w>": 1682,
    "skill": 1683,
    "capit": 1684,
    "ild": 1685,
    "8.</w>": 1686,
    "global</w>": 1687,
    "learn": 1688,
    "led": 1689,
    ".\"</w>": 1690,
    "assify</w>": 1691,
    "pat": 1692,
    "sun": 1693,
    "hand": 1694,
    "coo": 1695,
    "why</w>": 1696,
    "response.</w>": 1697,
    "tasks</w>": 1698,
    "An</w>": 1699,
    "Ans": 1700,
    "John</w>": 1701,
    "ared</w>": 1702,
    "ard</w>": 1703,
    "disc": 1704,
    "re,</w>": 1705,
    "inst": 1706,
    "ected.</w>": 1707,
    "experience</w>": 1708,
    "oper": 1709,
    "small</w>": 1710,
    "ide</w>": 1711,
    "med": 1712,
    "fact": 1713,
    "employ": 1714,
    "ategor": 1715,
    "United</w>": 1716,
    "cr": 1717,
    "erc": 1718,
    "pass": 1719,
    "wal": 1720,
    "cogn": 1721,
    "12</w>": 1722,
    "site</w>": 1723,
    "al,</w>": 1724,
    "Rewrite</w>": 1725,
    "ected</w>": 1726,
    "business": 1727,
    "feel": 1728,
    "40</w>": 1729,
    "k,</w>": 1730,
    "expres": 1731,
    "practic": 1732,
    "programm": 1733,
    "code</w>": 1734,
    "rele": 1735,
    "cent": 1736,
    "ven": 1737,
    "bod": 1738,
    "these</w>": 1739,
    "ering</w>": 1740,
    "same</w>": 1741,
    "gar": 1742,
    "own</w>": 1743,
    "multip": 1744,
    "thou": 1745,
    "agr": 1746,
    "mag": 1747,
    "Process</w>": 1748,
    "thin": 1749,
    "mus": 1750,
    "til</w>": 1751,
    "ref": 1752,
    "bas": 1753,
    "helpful,</w>": 1754,
    "foo": 1755,
    "happ": 1756,
    "ber": 1757,
    "creating</w>": 1758,
    "80</w>": 1759,
    "Pl": 1760,
    "back": 1761,
    "return</w>": 1762,
    "sear": 1763,
    "found</w>": 1764,
    "sentence.</w>": 1765,
    "must</w>": 1766,
    "60</w>": 1767,
    "ine": 1768,
    "om</w>": 1769,
    "Finally,</w>": 1770,
    "providing</w>": 1771,
    "great": 1772,
    "on,</w>": 1773,
    "fut": 1774,
    "multiplied</w>": 1775,
    "vol": 1776,
    "until</w>": 1777,
    "ans</w>": 1778,
    "sig": 1779,
    "climate</w>": 1780,
    "ually</w>": 1781,
    "health</w>": 1782,
    "Wor": 1783,
    "Answer</w>": 1784,
    "Po": 1785,
    "on.</w>": 1786,
    "care</w>": 1787,
    "down</w>": 1788,
    "fore</w>": 1789,
    "grow": 1790,
    "re.</w>": 1791,
    "tran": 1792,
    "complet": 1793,
    "List</w>": 1794,
    "tt": 1795,
    "emo": 1796,
    "contro": 1797,
    "learn</w>": 1798,
    "pub": 1799,
    "features</w>": 1800,
    "ensure</w>": 1801,
    "ause</w>": 1802,
    "15</w>": 1803,
    "metho": 1804,
    "artificial</w>": 1805,
    "ortun": 1806,
    "ains</w>": 1807,
    "just</w>": 1808,
    "cam": 1809,
    "muc": 1810,
    "ss</w>": 1811,
    "gies</w>": 1812,
    "meas": 1813,
    "items</w>": 1814,
    "que</w>": 1815,
    "design": 1816,
    "advant": 1817,
    "present": 1818,
    "does</w>": 1819,
    "devic": 1820,
    "ers": 1821,
    "sive</w>": 1822,
    "helps</w>": 1823,
    "10.</w>": 1824,
    "difficul": 1825,
    "key</w>": 1826,
    "website</w>": 1827,
    "ept</w>": 1828,
    "cat": 1829,
    "70</w>": 1830,
    "Give</w>": 1831,
    "earch</w>": 1832,
    "m.</w>": 1833,
    "print": 1834,
    "range</w>": 1835,
    "oth": 1836,
    "every": 1837,
    "detected.</w>": 1838,
    "ativ": 1839,
    "bir": 1840,
    "sed</w>": 1841,
    "):</w>": 1842,
    "impact</w>": 1843,
    "level": 1844,
    "warmly</w>": 1845,
    "Greeting</w>": 1846,
    "or.</w>": 1847,
    "No": 1848,
    "cert": 1849,
    "face</w>": 1850,
    "tit": 1851,
    "2,</w>": 1852,
    "alleng": 1853,
    "opportun": 1854,
    "Sp": 1855,
    "beg": 1856,
    "directly.</w>": 1857,
    "As</w>": 1858,
    "ble</w>": 1859,
    "customers</w>": 1860,
    "including</w>": 1861,
    "quickly</w>": 1862,
    "generate</w>": 1863,
    "time.</w>": 1864,
    "store</w>": 1865,
    "It": 1866,
    "related</w>": 1867,
    "ling</w>": 1868,
    "ass</w>": 1869,
    "tra": 1870,
    "rep": 1871,
    "allows</w>": 1872,
    "grou": 1873,
    "due</w>": 1874,
    "recogn": 1875,
    "physical</w>": 1876,
    "secur": 1877,
    "ash": 1878,
    "ount": 1879,
    "la": 1880,
    "action</w>": 1881,
    "capital.</w>": 1882,
    "head": 1883,
    "ness</w>": 1884,
    "Make</w>": 1885,
    "without</w>": 1886,
    ").</w>": 1887,
    "1,</w>": 1888,
    "You</w>": 1889,
    "squ": 1890,
    "Sugg": 1891,
    "conn": 1892,
    "always</w>": 1893,
    "plan</w>": 1894,
    "organiz": 1895,
    "contin": 1896,
    "view": 1897,
    "view</w>": 1898,
    "ire": 1899,
    "don": 1900,
    "much</w>": 1901,
    "</": 1902,
    "side</w>": 1903,
    "bin": 1904,
    "appropri": 1905,
    "become</w>": 1906,
    "saf": 1907,
    "ft</w>": 1908,
    "something</w>": 1909,
    "re</w>": 1910,
    "success": 1911,
    "content</w>": 1912,
    "Ear": 1913,
    "ending</w>": 1914,
    "Mo": 1915,
    "meric": 1916,
    "never</w>": 1917,
    "fiel": 1918,
    "ave</w>": 1919,
    "knowled": 1920,
    "Suggest</w>": 1921,
    "11</w>": 1922,
    "),</w>": 1923,
    "tions.</w>": 1924,
    "relation": 1925,
    "gover": 1926,
    "before</w>": 1927,
    "invest": 1928,
    "Sum": 1929,
    "ire</w>": 1930,
    "dit</w>": 1931,
    "rest</w>": 1932,
    "Americ": 1933,
    "positive</w>": 1934,
    "lead</w>": 1935,
    "ish</w>": 1936,
    "countri": 1937,
    "challeng": 1938,
    "business</w>": 1939,
    "To</w>": 1940,
    "yst": 1941,
    "stay</w>": 1942,
    "public</w>": 1943,
    "light": 1944,
    "als.</w>": 1945,
    "25</w>": 1946,
    "minut": 1947,
    "ery</w>": 1948,
    "poll": 1949,
    "maj": 1950,
    "5,</w>": 1951,
    "users</w>": 1952,
    "1:</w>": 1953,
    "web</w>": 1954,
    "trad": 1955,
    "ses</w>": 1956,
    "transp": 1957,
    "consum": 1958,
    "Fr": 1959,
    "creative</w>": 1960,
    "job</w>": 1961,
    "land": 1962,
    "ends</w>": 1963,
    "ey": 1964,
    "top</w>": 1965,
    "understand</w>": 1966,
    "ath": 1967,
    "en,</w>": 1968,
    "govern": 1969,
    "aging</w>": 1970,
    "necess": 1971,
    "efficient</w>": 1972,
    "ext</w>": 1973,
    "Out": 1974,
    "ants</w>": 1975,
    "ick</w>": 1976,
    "ind": 1977,
    "because</w>": 1978,
    "acy</w>": 1979,
    "sim": 1980,
    "ps</w>": 1981,
    "dem": 1982,
    "trac": 1983,
    "typically</w>": 1984,
    "increased</w>": 1985,
    "benefits</w>": 1986,
    "ets</w>": 1987,
    "run": 1988,
    "sch": 1989,
    "ts.</w>": 1990,
    "any": 1991,
    "go</w>": 1992,
    "variety</w>": 1993,
    "power": 1994,
    "known</w>": 1995,
    "marize</w>": 1996,
    "character": 1997,
    "phrase</w>": 1998,
    "long</w>": 1999,
    "ship</w>": 2000,
    "ban": 2001,
    "Li": 2002,
    "90</w>": 2003,
    "appropriate</w>": 2004,
    "common</w>": 2005,
    "real": 2006,
    "robo": 2007,
    "economic</w>": 2008,
    "reli": 2009,
    "non": 2010,
    "od": 2011,
    "world.</w>": 2012,
    "Ap": 2013,
    "involves</w>": 2014,
    "media</w>": 2015,
    "ream": 2016,
    "whe": 2017,
    "vel</w>": 2018,
    "financ": 2019,
    "pattern": 2020,
    "ber</w>": 2021,
    "add": 2022,
    "keep</w>": 2023,
    "well": 2024,
    "\"The</w>": 2025,
    "9.</w>": 2026,
    "AI": 2027,
    "numbers</w>": 2028,
    "certain</w>": 2029,
    "examp": 2030,
    "achi": 2031,
    "healthy</w>": 2032,
    "understanding</w>": 2033,
    "night</w>": 2034,
    "seas": 2035,
    "enjo": 2036,
    "ox": 2037,
    "intelligence</w>": 2038,
    "air": 2039,
    "sing": 2040,
    "mosp": 2041,
    "net</w>": 2042,
    "doc": 2043,
    "2:</w>": 2044,
    "taking</w>": 2045,
    "den</w>": 2046,
    "jour": 2047,
    "fre": 2048,
    "book</w>": 2049,
    "systems</w>": 2050,
    "che": 2051,
    "movie</w>": 2052,
    "per</w>": 2053,
    "optim": 2054,
    "ather</w>": 2055,
    "ci": 2056,
    "time,</w>": 2057,
    "descrip": 2058,
    "dar": 2059,
    "og": 2060,
    "roduc": 2061,
    "day.</w>": 2062,
    "marketing</w>": 2063,
    "read</w>": 2064,
    "por": 2065,
    "ence.</w>": 2066,
    "tal": 2067,
    "digital</w>": 2068,
    "GP": 2069,
    "s?</w>": 2070,
    "live</w>": 2071,
    "popular</w>": 2072,
    "together</w>": 2073,
    "ak</w>": 2074,
    "interest": 2075,
    "et.</w>": 2076,
    "leg": 2077,
    "Ac": 2078,
    "maint": 2079,
    "input": 2080,
    "company</w>": 2081,
    "sequ": 2082,
    "store": 2083,
    "My</w>": 2084,
    "ately</w>": 2085,
    "atmosp": 2086,
    "scienti": 2087,
    "meaning</w>": 2088,
    "veget": 2089,
    "struct</w>": 2090,
    "table</w>": 2091,
    "works</w>": 2092,
    "xi": 2093,
    "name</w>": 2094,
    "provides</w>": 2095,
    "possible</w>": 2096,
    "effective</w>": 2097,
    "auth": 2098,
    "data.</w>": 2099,
    "ry</w>": 2100,
    "ching</w>": 2101,
    "zing</w>": 2102,
    "xim": 2103,
    "statement</w>": 2104,
    "mine</w>": 2105,
    "tual</w>": 2106,
    "fill": 2107,
    "clou": 2108,
    "led</w>": 2109,
    "allowing</w>": 2110,
    "collec": 2111,
    "ess.</w>": 2112,
    "essential</w>": 2113,
    "nific": 2114,
    "Classify</w>": 2115,
    "test": 2116,
    "cost</w>": 2117,
    "ts,</w>": 2118,
    "current</w>": 2119,
    "bil": 2120,
    "th.</w>": 2121,
    "lish": 2122,
    "12": 2123,
    "ght.</w>": 2124,
    "fur": 2125,
    "lay": 2126,
    "situ": 2127,
    "plat": 2128,
    "home</w>": 2129,
    "describe</w>": 2130,
    "too": 2131,
    "bri": 2132,
    "design</w>": 2133,
    "solu": 2134,
    "here</w>": 2135,
    "spec": 2136,
    "day": 2137,
    "questions</w>": 2138,
    "amount</w>": 2139,
    "3,</w>": 2140,
    "program</w>": 2141,
    "e?</w>": 2142,
    "correct</w>": 2143,
    "ables</w>": 2144,
    "energ": 2145,
    "ord": 2146,
    "ear</w>": 2147,
    "renew": 2148,
    "resources</w>": 2149,
    "deep</w>": 2150,
    "businesses</w>": 2151,
    "\",</w>": 2152,
    "techni": 2153,
    "age,</w>": 2154,
    "hom": 2155,
    "activities</w>": 2156,
    "ters</w>": 2157,
    "task": 2158,
    "parti": 2159,
    "bro": 2160,
    "verage</w>": 2161,
    "flu": 2162,
    "fil": 2163,
    "beli": 2164,
    "Design</w>": 2165,
    "havi": 2166,
    "few</w>": 2167,
    "Once</w>": 2168,
    "bon</w>": 2169,
    "complex</w>": 2170,
    "during</w>": 2171,
    "45</w>": 2172,
    "family</w>": 2173,
    "dro": 2174,
    "strong</w>": 2175,
    "lion</w>": 2176,
    "ency</w>": 2177,
    "cas": 2178,
    "structure": 2179,
    "ities.</w>": 2180,
    "ic.</w>": 2181,
    "visu": 2182,
    "00</w>": 2183,
    "ents.</w>": 2184,
    "development</w>": 2185,
    "game</w>": 2186,
    "piec": 2187,
    "self</w>": 2188,
    "gam": 2189,
    "value</w>": 2190,
    "ations,</w>": 2191,
    "sle": 2192,
    "purch": 2193,
    "pap": 2194,
    "signific": 2195,
    "ic,</w>": 2196,
    "Eng": 2197,
    "aur": 2198,
    "lis": 2199,
    "high</w>": 2200,
    "wn": 2201,
    "lit": 2202,
    "know</w>": 2203,
    "y-": 2204,
    "sun</w>": 2205,
    "explain</w>": 2206,
    "students</w>": 2207,
    "child": 2208,
    "ve.</w>": 2209,
    "behavi": 2210,
    "sw": 2211,
    "Summarize</w>": 2212,
    "If</w>": 2213,
    "search</w>": 2214,
    "Analy": 2215,
    "eve</w>": 2216,
    "soci": 2217,
    "ind</w>": 2218,
    "powerful</w>": 2219,
    "ten": 2220,
    "sid": 2221,
    "izing</w>": 2222,
    "show": 2223,
    "elements</w>": 2224,
    "assist": 2225,
    "bal": 2226,
    "promo": 2227,
    "ank</w>": 2228,
    "ance.</w>": 2229,
    "programming</w>": 2230,
    "cy": 2231,
    "den": 2232,
    "als,</w>": 2233,
    "ols</w>": 2234,
    "Devel": 2235,
    "electr": 2236,
    "peop": 2237,
    "ization</w>": 2238,
    "mor": 2239,
    "Indi": 2240,
    "again": 2241,
    "types</w>": 2242,
    "sty": 2243,
    "itional</w>": 2244,
    "pho": 2245,
    "fast": 2246,
    "emis": 2247,
    "poem</w>": 2248,
    "classi": 2249,
    "websit": 2250,
    "Bo": 2251,
    "services</w>": 2252,
    "information.</w>": 2253,
    "Pre": 2254,
    "renewable</w>": 2255,
    "Construct</w>": 2256,
    "He": 2257,
    "4,</w>": 2258,
    "thes": 2259,
    "team</w>": 2260,
    "Py": 2261,
    "difficult</w>": 2262,
    "To": 2263,
    "es:</w>": 2264,
    "day,</w>": 2265,
    "Mar": 2266,
    "those</w>": 2267,
    "ure.</w>": 2268,
    "quality</w>": 2269,
    "part</w>": 2270,
    "four</w>": 2271,
    "specific</w>": 2272,
    "When</w>": 2273,
    "looking</w>": 2274,
    "deli": 2275,
    "Is</w>": 2276,
    "journe": 2277,
    "ired</w>": 2278,
    "reach</w>": 2279,
    "discus": 2280,
    "35</w>": 2281,
    "network</w>": 2282,
    "love</w>": 2283,
    "difference</w>": 2284,
    "addition": 2285,
    "ingre": 2286,
    "ingredi": 2287,
    "or,</w>": 2288,
    "unique</w>": 2289,
    "There</w>": 2290,
    "tional</w>": 2291,
    "let</w>": 2292,
    "materi": 2293,
    "tal</w>": 2294,
    "sis</w>": 2295,
    "ment.</w>": 2296,
    "working</w>": 2297,
    "off</w>": 2298,
    "ands</w>": 2299,
    "cup</w>": 2300,
    "area</w>": 2301,
    "75</w>": 2302,
    "New</w>": 2303,
    "decision": 2304,
    "having</w>": 2305,
    "living</w>": 2306,
    "short</w>": 2307,
    "chec": 2308,
    "reas": 2309,
    "sugg": 2310,
    "Par": 2311,
    "determin": 2312,
    "avail": 2313,
    "employe": 2314,
    "ently</w>": 2315,
    "With</w>": 2316,
    "dustr": 2317,
    "encour": 2318,
    "rain": 2319,
    "Add</w>": 2320,
    "18": 2321,
    "ail</w>": 2322,
    "structure</w>": 2323,
    "transport": 2324,
    "ond</w>": 2325,
    "ce": 2326,
    "necessary</w>": 2327,
    "major</w>": 2328,
    "concept</w>": 2329,
    "ax": 2330,
    "data,</w>": 2331,
    "going</w>": 2332,
    "ures</w>": 2333,
    "sky</w>": 2334,
    "ke</w>": 2335,
    "mental</w>": 2336,
    "1/": 2337,
    "audi": 2338,
    "problem": 2339,
    "graph": 2340,
    "roc": 2341,
    "changes</w>": 2342,
    "moder": 2343,
    "ross</w>": 2344,
    "remo": 2345,
    "ver,</w>": 2346,
    "medical</w>": 2347,
    "countries</w>": 2348,
    "ive</w>": 2349,
    "financial</w>": 2350,
    "ish": 2351,
    "mary</w>": 2352,
    "fied</w>": 2353,
    "focus</w>": 2354,
    "tom": 2355,
    "technolog": 2356,
    "fru": 2357,
    "sust": 2358,
    "upon</w>": 2359,
    "effects</w>": 2360,
    "resp": 2361,
    "security</w>": 2362,
    "require": 2363,
    "wee": 2364,
    "th,</w>": 2365,
    "disco": 2366,
    "sever": 2367,
    "neg": 2368,
    "65</w>": 2369,
    "lat": 2370,
    "Take</w>": 2371,
    "man</w>": 2372,
    "auti": 2373,
    "verse</w>": 2374,
    "body</w>": 2375,
    "feed": 2376,
    "Int": 2377,
    "products</w>": 2378,
    "steps</w>": 2379,
    "importance</w>": 2380,
    "communication</w>": 2381,
    "labor": 2382,
    "atis": 2383,
    "vely</w>": 2384,
    "call": 2385,
    "active</w>": 2386,
    "carbon</w>": 2387,
    "someone</w>": 2388,
    "her": 2389,
    "function</w>": 2390,
    "instruc": 2391,
    "industr": 2392,
    "feeling</w>": 2393,
    "fig": 2394,
    "tions,</w>": 2395,
    "sense</w>": 2396,
    "recip": 2397,
    "ines</w>": 2398,
    "source</w>": 2399,
    "orts</w>": 2400,
    "ous": 2401,
    "environment</w>": 2402,
    "vert</w>": 2403,
    "95</w>": 2404,
    "exerc": 2405,
    "ism</w>": 2406,
    "mess": 2407,
    "ori": 2408,
    "ents,</w>": 2409,
    "Qu": 2410,
    "advent": 2411,
    "ession": 2412,
    "present</w>": 2413,
    "ces.</w>": 2414,
    "lish</w>": 2415,
    "55</w>": 2416,
    "includ": 2417,
    "every</w>": 2418,
    "sources</w>": 2419,
    "car</w>": 2420,
    "knowledge</w>": 2421,
    "ence,</w>": 2422,
    "y:</w>": 2423,
    "ur</w>": 2424,
    "youn": 2425,
    "improved</w>": 2426,
    "term</w>": 2427,
    "appe": 2428,
    "These</w>": 2429,
    "example,</w>": 2430,
    "house</w>": 2431,
    "-based</w>": 2432,
    "alized</w>": 2433,
    "ound": 2434,
    "play</w>": 2435,
    "gen": 2436,
    "class": 2437,
    "successful</w>": 2438,
    "paragr": 2439,
    "ough</w>": 2440,
    "small": 2441,
    "leng": 2442,
    "years</w>": 2443,
    "research</w>": 2444,
    "past</w>": 2445,
    "convers": 2446,
    "oci": 2447,
    "restaur": 2448,
    "ins</w>": 2449,
    "shap": 2450,
    "city</w>": 2451,
    "algorithms</w>": 2452,
    "paint": 2453,
    "support</w>": 2454,
    "ech</w>": 2455,
    "ement.</w>": 2456,
    "oce": 2457,
    "leading</w>": 2458,
    "combin": 2459,
    "various</w>": 2460,
    "oring</w>": 2461,
    "life.</w>": 2462,
    "average</w>": 2463,
    "teach": 2464,
    "85</w>": 2465,
    "ner</w>": 2466,
    "sustain": 2467,
    "think</w>": 2468,
    "ince</w>": 2469,
    "US</w>": 2470,
    "cause</w>": 2471,
    "feren": 2472,
    "future</w>": 2473,
    "ess,</w>": 2474,
    "mer</w>": 2475,
    "look</w>": 2476,
    "tren": 2477,
    "Pyth": 2478,
    "wast": 2479,
    "tili": 2480,
    "cir": 2481,
    "break": 2482,
    "word": 2483,
    "̦̦": 2484,
    "build</w>": 2485,
    "sibil": 2486,
    "cost": 2487,
    "start</w>": 2488,
    "cal": 2489,
    "No</w>": 2490,
    "needs</w>": 2491,
    "err": 2492,
    "explore</w>": 2493,
    "o,</w>": 2494,
    "skills</w>": 2495,
    "traditional</w>": 2496,
    "output</w>": 2497,
    "means</w>": 2498,
    "objec": 2499,
    "ces,</w>": 2500,
    "hol": 2501,
    "program": 2502,
    "rop": 2503,
    "ening</w>": 2504,
    "evol": 2505,
    "stoc": 2506,
    "Sh": 2507,
    "ve,</w>": 2508,
    "satis": 2509,
    "Dat": 2510,
    "reducing</w>": 2511,
    "Co": 2512,
    "problem</w>": 2513,
    "control</w>": 2514,
    "rang": 2515,
    "aring</w>": 2516,
    "Compare</w>": 2517,
    "ace": 2518,
    "prime</w>": 2519,
    "other": 2520,
    "techniqu": 2521,
    "selec": 2522,
    "Come</w>": 2523,
    "advantages</w>": 2524,
    "categor": 2525,
    "poon</w>": 2526,
    "ier</w>": 2527,
    "Edit</w>": 2528,
    "detail": 2529,
    "date</w>": 2530,
    "recomm": 2531,
    "project</w>": 2532,
    "bur": 2533,
    "pati": 2534,
    "docum": 2535,
    "multiple</w>": 2536,
    "gl": 2537,
    "local</w>": 2538,
    "datab": 2539,
    "Pers": 2540,
    "sav": 2541,
    "relationship": 2542,
    "exper": 2543,
    "greater</w>": 2544,
    "targ": 2545,
    "hour": 2546,
    "animals</w>": 2547,
    "ual</w>": 2548,
    "Nam": 2549,
    "iting</w>": 2550,
    "Chin": 2551,
    "reng": 2552,
    "ply</w>": 2553,
    "risk</w>": 2554,
    "ww": 2555,
    "temperature</w>": 2556,
    "depend": 2557,
    "super": 2558,
    "complete</w>": 2559,
    "exist": 2560,
    "still</w>": 2561,
    "perf": 2562,
    "awa": 2563,
    "anced</w>": 2564,
    "____": 2565,
    "ru": 2566,
    "Fur": 2567,
    "develop</w>": 2568,
    "market</w>": 2569,
    "influ": 2570,
    "largest</w>": 2571,
    "lower</w>": 2572,
    "ribut": 2573,
    "team": 2574,
    "train": 2575,
    "introduc": 2576,
    "pric": 2577,
    "forest": 2578,
    "protect</w>": 2579,
    "ens</w>": 2580,
    "ance,</w>": 2581,
    "defin": 2582,
    "allow</w>": 2583,
    "hab": 2584,
    "Pr": 2585,
    "Lear": 2586,
    "compon": 2587,
    "Af": 2588,
    "polit": 2589,
    "compet": 2590,
    "them.</w>": 2591,
    "away</w>": 2592,
    "ale</w>": 2593,
    "ght,</w>": 2594,
    "environment.</w>": 2595,
    "thermo": 2596,
    "now</w>": 2597,
    "insi": 2598,
    "seen</w>": 2599,
    "It's</w>": 2600,
    "beaut": 2601,
    "either</w>": 2602,
    "beauti": 2603,
    "against</w>": 2604,
    "def</w>": 2605,
    "personal</w>": 2606,
    "higher</w>": 2607,
    "ward</w>": 2608,
    "relev": 2609,
    "crib": 2610,
    "bar": 2611,
    "writing</w>": 2612,
    "Tw": 2613,
    "engine": 2614,
    "Ph": 2615,
    "men": 2616,
    "associ": 2617,
    "ann": 2618,
    "ment,</w>": 2619,
    "self-": 2620,
    "dam": 2621,
    "Cap": 2622,
    "ight</w>": 2623,
    "tle</w>": 2624,
    "Di": 2625,
    "hard</w>": 2626,
    "ors.</w>": 2627,
    "an,</w>": 2628,
    "sum</w>": 2629,
    "15": 2630,
    "usually</w>": 2631,
    "wards</w>": 2632,
    "By</w>": 2633,
    "able.</w>": 2634,
    "last</w>": 2635,
    "Gr": 2636,
    "ll</w>": 2637,
    "across</w>": 2638,
    "Ro": 2639,
    "verb</w>": 2640,
    "collabor": 2641,
    "rate</w>": 2642,
    "ances</w>": 2643,
    "did</w>": 2644,
    "total</w>": 2645,
    "dom": 2646,
    "Mon": 2647,
    "friends</w>": 2648,
    "simil": 2649,
    "profession": 2650,
    "too</w>": 2651,
    "contr": 2652,
    "neural</w>": 2653,
    "Tech": 2654,
    "aph</w>": 2655,
    "result</w>": 2656,
    "atic</w>": 2657,
    "young</w>": 2658,
    "Be": 2659,
    "streng": 2660,
    "land</w>": 2661,
    "dom</w>": 2662,
    "app</w>": 2663,
    "roo": 2664,
    "Analyze</w>": 2665,
    "words.</w>": 2666,
    "Lo": 2667,
    "modern</w>": 2668,
    "prev": 2669,
    "hop": 2670,
    "one.</w>": 2671,
    "nov": 2672,
    "as,</w>": 2673,
    "prog": 2674,
    "see</w>": 2675,
    "full</w>": 2676,
    "goo": 2677,
    "Ste": 2678,
    "phone</w>": 2679,
    "ah": 2680,
    "Car": 2681,
    "connec": 2682,
    "17": 2683,
    "healthcare</w>": 2684,
    "virtual</w>": 2685,
    "feel</w>": 2686,
    "histor": 2687,
    "free</w>": 2688,
    "fle": 2689,
    "posed</w>": 2690,
    "filled</w>": 2691,
    "share</w>": 2692,
    "syn": 2693,
    "email</w>": 2694,
    "imag": 2695,
    "performance</w>": 2696,
    "hic": 2697,
    "heart</w>": 2698,
    "bud": 2699,
    "your": 2700,
    "achiev": 2701,
    "avi": 2702,
    "patterns</w>": 2703,
    "eco": 2704,
    "motiv": 2705,
    "ors,</w>": 2706,
    "post": 2707,
    "ple": 2708,
    "environmental</w>": 2709,
    "next</w>": 2710,
    "Le": 2711,
    "degre": 2712,
    "strategies</w>": 2713,
    "astic</w>": 2714,
    "caused</w>": 2715,
    "array</w>": 2716,
    "mom": 2717,
    "los": 2718,
    "want</w>": 2719,
    "tak": 2720,
    "order": 2721,
    "serv": 2722,
    "imple": 2723,
    "clear</w>": 2724,
    "internet</w>": 2725,
    "egg": 2726,
    "et,</w>": 2727,
    "ounts</w>": 2728,
    "ats</w>": 2729,
    "easy</w>": 2730,
    "vide": 2731,
    "purpose</w>": 2732,
    "represent": 2733,
    ",00": 2734,
    "character</w>": 2735,
    "Arti": 2736,
    "weet</w>": 2737,
    "lies</w>": 2738,
    "American</w>": 2739,
    "rul": 2740,
    "part": 2741,
    "dra": 2742,
    "weather</w>": 2743,
    "includes</w>": 2744,
    "describ": 2745,
    "increasing</w>": 2746,
    "processing</w>": 2747,
    "all,</w>": 2748,
    "ention</w>": 2749,
    "points</w>": 2750,
    "sentim": 2751,
    "money</w>": 2752,
    "ution": 2753,
    "setting</w>": 2754,
    "government</w>": 2755,
    "teas": 2756,
    "heat</w>": 2757,
    "eth": 2758,
    "after</w>": 2759,
    "ths</w>": 2760,
    "condition": 2761,
    "room": 2762,
    "at.</w>": 2763,
    "bloc": 2764,
    "sentence:</w>": 2765,
    "proper": 2766,
    "species</w>": 2767,
    "hor": 2768,
    "forms</w>": 2769,
    "scen": 2770,
    "o.</w>": 2771,
    "ever</w>": 2772,
    "add</w>": 2773,
    "news</w>": 2774,
    "models</w>": 2775,
    "utr": 2776,
    "icious</w>": 2777,
    "system.</w>": 2778,
    "cess.</w>": 2779,
    "vehic": 2780,
    "save</w>": 2781,
    "human": 2782,
    "relevant</w>": 2783,
    "associated</w>": 2784,
    "els</w>": 2785,
    "ities,</w>": 2786,
    "simple</w>": 2787,
    "population</w>": 2788,
    "don't</w>": 2789,
    "cle</w>": 2790,
    "at's</w>": 2791,
    "actions</w>": 2792,
    "ings.</w>": 2793,
    "ases</w>": 2794,
    "On</w>": 2795,
    "Apple</w>": 2796,
    "ste": 2797,
    "Str": 2798,
    "myst": 2799,
    "group</w>": 2800,
    "world": 2801,
    "wid": 2802,
    "blue</w>": 2803,
    "orig": 2804,
    "law": 2805,
    "reci": 2806,
    "Categor": 2807,
    "chem": 2808,
    "After</w>": 2809,
    "designed</w>": 2810,
    "ly": 2811,
    "Compose</w>": 2812,
    "mount": 2813,
    "one": 2814,
    "dog": 2815,
    "Machine</w>": 2816,
    "it's</w>": 2817,
    "campa": 2818,
    "overall</w>": 2819,
    "job": 2820,
    "it,</w>": 2821,
    "education</w>": 2822,
    "contains</w>": 2823,
    "n't</w>": 2824,
    "key": 2825,
    "ustri": 2826,
    "stre": 2827,
    "methods</w>": 2828,
    "ming</w>": 2829,
    "datas": 2830,
    "photo": 2831,
    "States</w>": 2832,
    "ant.</w>": 2833,
    "able,</w>": 2834,
    "levels</w>": 2835,
    "thermore,</w>": 2836,
    "ecting</w>": 2837,
    "Furthermore,</w>": 2838,
    "at,</w>": 2839,
    "things</w>": 2840,
    "friendly</w>": 2841,
    "ideas</w>": 2842,
    "opping</w>": 2843,
    "point</w>": 2844,
    "Col": 2845,
    "Artificial</w>": 2846,
    "Ho": 2847,
    "Use</w>": 2848,
    "training</w>": 2849,
    "likely</w>": 2850,
    "won": 2851,
    "itable</w>": 2852,
    "ns</w>": 2853,
    "eter": 2854,
    "14": 2855,
    "went</w>": 2856,
    "impac": 2857,
    "print(": 2858,
    "cit": 2859,
    "//": 2860,
    "The": 2861,
    "within</w>": 2862,
    "Stat": 2863,
    "diseas": 2864,
    "spac": 2865,
    "sym": 2866,
    "solve</w>": 2867,
    "comes</w>": 2868,
    "recei": 2869,
    "argum": 2870,
    "arch": 2871,
    "ure,</w>": 2872,
    "tabl": 2873,
    "takes</w>": 2874,
    "en.</w>": 2875,
    "individual</w>": 2876,
    "pand": 2877,
    "characters</w>": 2878,
    "idea</w>": 2879,
    "us,</w>": 2880,
    "m,</w>": 2881,
    "track</w>": 2882,
    "Eu": 2883,
    "Jav": 2884,
    "regular</w>": 2885,
    "verb": 2886,
    "reach": 2887,
    "mach": 2888,
    "fel": 2889,
    "er's</w>": 2890,
    "decisions</w>": 2891,
    "space</w>": 2892,
    "alu": 2893,
    "travel": 2894,
    "ended</w>": 2895,
    "square</w>": 2896,
    "applications</w>": 2897,
    "smar": 2898,
    "cu": 2899,
    "ars</w>": 2900,
    "bon": 2901,
    "ter,</w>": 2902,
    "az": 2903,
    "him</w>": 2904,
    "computing</w>": 2905,
    "lack</w>": 2906,
    "a's</w>": 2907,
    "Technolo": 2908,
    "now": 2909,
    "adjec": 2910,
    "mob": 2911,
    "student</w>": 2912,
    "perfect</w>": 2913,
    "far": 2914,
    "page</w>": 2915,
    "cat</w>": 2916,
    "mobile</w>": 2917,
    "work.</w>": 2918,
    "gram": 2919,
    "A.</w>": 2920,
    "makes</w>": 2921,
    "mel": 2922,
    "clus": 2923,
    "Sou": 2924,
    "stri": 2925,
    "price</w>": 2926,
    "request": 2927,
    "comfor": 2928,
    "solution</w>": 2929,
    "open</w>": 2930,
    "ingly</w>": 2931,
    "strategy</w>": 2932,
    "inf": 2933,
    "angle</w>": 2934,
    "detect</w>": 2935,
    "innov": 2936,
    "ato": 2937,
    "several</w>": 2938,
    "tly</w>": 2939,
    "sentences</w>": 2940,
    "ready</w>": 2941,
    "further</w>": 2942,
    "level</w>": 2943,
    "color</w>": 2944,
    "Im": 2945,
    "--------": 2946,
    "radi": 2947,
    "description</w>": 2948,
    "ics,</w>": 2949,
    "ai": 2950,
    "ps": 2951,
    "blo": 2952,
    "continu": 2953,
    "enabl": 2954,
    "ned</w>": 2955,
    "itu": 2956,
    "clear,</w>": 2957,
    "pay": 2958,
    "tric</w>": 2959,
    "excell": 2960,
    "engag": 2961,
    "title</w>": 2962,
    "beauty</w>": 2963,
    "Convert</w>": 2964,
    "ments.</w>": 2965,
    "Or": 2966,
    "logical</w>": 2967,
    "year</w>": 2968,
    "priv": 2969,
    "ided</w>": 2970,
    "project": 2971,
    "fric": 2972,
    "GPT</w>": 2973,
    "Three</w>": 2974,
    "Person</w>": 2975,
    "Develop</w>": 2976,
    "opin": 2977,
    "vid": 2978,
    "rat": 2979,
    "ing:</w>": 2980,
    "him": 2981,
    "Data</w>": 2982,
    "coming</w>": 2983,
    "ask</w>": 2984,
    "through": 2985,
    "cular</w>": 2986,
    "n.</w>": 2987,
    "task</w>": 2988,
    "oose</w>": 2989,
    "arly</w>": 2990,
    "an.</w>": 2991,
    "created</w>": 2992,
    "perio": 2993,
    "beautiful</w>": 2994,
    "techniques</w>": 2995,
    "teaspoon</w>": 2996,
    "non-": 2997,
    "6,</w>": 2998,
    "sound</w>": 2999,
    "companies</w>": 3000,
    "wide</w>": 3001,
    "bring</w>": 3002,
    "thesis</w>": 3003,
    "ssi": 3004,
    "wom": 3005,
    "as.</w>": 3006,
    "determine</w>": 3007,
    "you'": 3008,
    "sl": 3009,
    "produce</w>": 3010,
    "since</w>": 3011,
    "row</w>": 3012,
    "study</w>": 3013,
    "feature</w>": 3014,
    "solutions</w>": 3015,
    "offers</w>": 3016,
    "ush": 3017,
    "science</w>": 3018,
    "ool</w>": 3019,
    "just": 3020,
    "animal</w>": 3021,
    "er-": 3022,
    "sor": 3023,
    "require</w>": 3024,
    "examples</w>": 3025,
    "string</w>": 3026,
    "follow": 3027,
    "calcul": 3028,
    "playing</w>": 3029,
    "themat": 3030,
    "short": 3031,
    "revol": 3032,
    "differences</w>": 3033,
    "n,</w>": 3034,
    "tou": 3035,
    "bio": 3036,
    "0,</w>": 3037,
    "fav": 3038,
    "ank": 3039,
    "easier</w>": 3040,
    "provided</w>": 3041,
    "B.</w>": 3042,
    "thre": 3043,
    "y?</w>": 3044,
    "cup": 3045,
    "secure</w>": 3046,
    "13": 3047,
    "ings,</w>": 3048,
    "Dis": 3049,
    "solving</w>": 3050,
    "htt": 3051,
    "negative</w>": 3052,
    "room</w>": 3053,
    "ger</w>": 3054,
    "Goo": 3055,
    "experience.</w>": 3056,
    "feedback</w>": 3057,
    "Your</w>": 3058,
    "We": 3059,
    "Hi": 3060,
    "tools</w>": 3061,
    "sea</w>": 3062,
    "phas": 3063,
    ",000</w>": 3064,
    "requires</w>": 3065,
    "visit": 3066,
    "recor": 3067,
    "events</w>": 3068,
    "ia</w>": 3069,
    "Output</w>": 3070,
    "bow": 3071,
    "crit": 3072,
    "pandem": 3073,
    "ren</w>": 3074,
    "step</w>": 3075,
    "smo": 3076,
    "://": 3077,
    "tics</w>": 3078,
    "y's</w>": 3079,
    "=\"": 3080,
    "object": 3081,
    "flow": 3082,
    "ground</w>": 3083,
    "paper</w>": 3084,
    "monit": 3085,
    "hand,</w>": 3086,
    "World</w>": 3087,
    "topic</w>": 3088,
    "ner": 3089,
    "Rec": 3090,
    "Trans": 3091,
    "-1": 3092,
    "conven": 3093,
    "lap": 3094,
    "terms</w>": 3095,
    "Pe": 3096,
    "open": 3097,
    "advic": 3098,
    "application</w>": 3099,
    "leav": 3100,
    "ions</w>": 3101,
    "us.</w>": 3102,
    "developing</w>": 3103,
    "ered</w>": 3104,
    "available</w>": 3105,
    "becom": 3106,
    "well-": 3107,
    "expected</w>": 3108,
    "insp": 3109,
    "tables": 3110,
    "bat": 3111,
    "Capital</w>": 3112,
    "und": 3113,
    "onic</w>": 3114,
    "Comput": 3115,
    "paragraph</w>": 3116,
    "ys</w>": 3117,
    "field</w>": 3118,
    "practice</w>": 3119,
    "colors</w>": 3120,
    "late</w>": 3121,
    "tax": 3122,
    "ik": 3123,
    "significant</w>": 3124,
    "liv": 3125,
    "spread</w>": 3126,
    "speech</w>": 3127,
    "maxim": 3128,
    "written</w>": 3129,
    "Python</w>": 3130,
    "show</w>": 3131,
    "green</w>": 3132,
    "din": 3133,
    "done</w>": 3134,
    "connected</w>": 3135,
    "metaph": 3136,
    "de,</w>": 3137,
    "Au": 3138,
    "million</w>": 3139,
    "ects</w>": 3140,
    "Afric": 3141,
    "dream": 3142,
    "individuals</w>": 3143,
    "ter.</w>": 3144,
    "https": 3145,
    "sit</w>": 3146,
    "ient</w>": 3147,
    "called</w>": 3148,
    "vers</w>": 3149,
    "decision</w>": 3150,
    "mal": 3151,
    "stock</w>": 3152,
    "sustainable</w>": 3153,
    "Char": 3154,
    "cell": 3155,
    "origin": 3156,
    "t:</w>": 3157,
    "equation</w>": 3158,
    "analyze</w>": 3159,
    "sentence,</w>": 3160,
    "journey</w>": 3161,
    "oul": 3162,
    "ones</w>": 3163,
    "growth</w>": 3164,
    "inste": 3165,
    "https://": 3166,
    "ball</w>": 3167,
    "gain</w>": 3168,
    "extre": 3169,
    "HT": 3170,
    "wever,</w>": 3171,
    "lines</w>": 3172,
    "ks,</w>": 3173,
    "object</w>": 3174,
    "Two</w>": 3175,
    "0.": 3176,
    "avel</w>": 3177,
    "siz": 3178,
    "mathemat": 3179,
    "bul": 3180,
    "product.</w>": 3181,
    "matter</w>": 3182,
    "speed</w>": 3183,
    "reflec": 3184,
    "ingredients</w>": 3185,
    "],</w>": 3186,
    "solar</w>": 3187,
    "sequenc": 3188,
    "are:</w>": 3189,
    "Ger": 3190,
    "minim": 3191,
    "areas</w>": 3192,
    "Ser": 3193,
    "ches</w>": 3194,
    "avo": 3195,
    "intern": 3196,
    "def": 3197,
    "ch.</w>": 3198,
    "easily</w>": 3199,
    "fid": 3200,
    "ticip": 3201,
    "emissions</w>": 3202,
    "dark</w>": 3203,
    "ef</w>": 3204,
    "explan": 3205,
    "SE": 3206,
    "tives</w>": 3207,
    "king": 3208,
    "market": 3209,
    "spo": 3210,
    "grad": 3211,
    "erous</w>": 3212,
    "Categorize</w>": 3213,
    "gen</w>": 3214,
    "white</w>": 3215,
    "magical</w>": 3216,
    "ice.</w>": 3217,
    "res</w>": 3218,
    "way": 3219,
    "suggest": 3220,
    "rol": 3221,
    "cli": 3222,
    "blu": 3223,
    "felt</w>": 3224,
    "ef": 3225,
    "single</w>": 3226,
    "might</w>": 3227,
    "analysis</w>": 3228,
    "anted</w>": 3229,
    "basic</w>": 3230,
    "ements</w>": 3231,
    "culture": 3232,
    "mind": 3233,
    "implement": 3234,
    "days</w>": 3235,
    "sion.</w>": 3236,
    "see": 3237,
    "manage</w>": 3238,
    "ion.</w>": 3239,
    "Fir": 3240,
    "equal</w>": 3241,
    "to-": 3242,
    "quant": 3243,
    "dest": 3244,
    "ensive</w>": 3245,
    "role</w>": 3246,
    "least</w>": 3247,
    "oil</w>": 3248,
    "transform": 3249,
    "Fri": 3250,
    "excellent</w>": 3251,
    "accor": 3252,
    "goals</w>": 3253,
    "8,</w>": 3254,
    "helping</w>": 3255,
    "scientific</w>": 3256,
    "ought</w>": 3257,
    "move</w>": 3258,
    "decided</w>": 3259,
    "recy": 3260,
    "humans</w>": 3261,
    "Jap": 3262,
    "success</w>": 3263,
    "se,</w>": 3264,
    "evalu": 3265,
    "surve": 3266,
    "11": 3267,
    "vent": 3268,
    "verti": 3269,
    "Ver": 3270,
    "objects</w>": 3271,
    "versity</w>": 3272,
    "according</w>": 3273,
    "transportation</w>": 3274,
    "ion,</w>": 3275,
    "Aut": 3276,
    "challenges</w>": 3277,
    "ump": 3278,
    "opportunities</w>": 3279,
    "control": 3280,
    "down": 3281,
    "Intellig": 3282,
    "agno": 3283,
    "mist": 3284,
    "plants</w>": 3285,
    "cloud</w>": 3286,
    "emphas": 3287,
    "resi": 3288,
    "Pri": 3289,
    "flexi": 3290,
    "changing</w>": 3291,
    "suitable</w>": 3292,
    "activity</w>": 3293,
    "stand": 3294,
    "needed</w>": 3295,
    "altern": 3296,
    "number.</w>": 3297,
    "centur": 3298,
    "books</w>": 3299,
    "sion,</w>": 3300,
    "shopping</w>": 3301,
    "C.</w>": 3302,
    "ics.</w>": 3303,
    "personalized</w>": 3304,
    "aying</w>": 3305,
    "ented</w>": 3306,
    "mov": 3307,
    "letter</w>": 3308,
    "door</w>": 3309,
    "wind</w>": 3310,
    "200</w>": 3311,
    "famil": 3312,
    "safety</w>": 3313,
    "Inter": 3314,
    "ond": 3315,
    "Tell</w>": 3316,
    "length</w>": 3317,
    "confid": 3318,
    "sens": 3319,
    "rup": 3320,
    "atmosphe": 3321,
    "ran": 3322,
    "involve</w>": 3323,
    "experim": 3324,
    "Me": 3325,
    "another</w>": 3326,
    "But</w>": 3327,
    "sil": 3328,
    "Can": 3329,
    "For": 3330,
    "Produc": 3331,
    "dish": 3332,
    "management</w>": 3333,
    "Name": 3334,
    "electric</w>": 3335,
    "From</w>": 3336,
    "frequ": 3337,
    "sentiment</w>": 3338,
    "elling</w>": 3339,
    "stress</w>": 3340,
    "children</w>": 3341,
    "brow": 3342,
    "clos": 3343,
    "adap": 3344,
    "contrast</w>": 3345,
    "gir": 3346,
    "class</w>": 3347,
    "email": 3348,
    "ee</w>": 3349,
    "Ma": 3350,
    "item</w>": 3351,
    "laun": 3352,
    "maintain</w>": 3353,
    "text.</w>": 3354,
    "habit": 3355,
    "productiv": 3356,
    "Sm": 3357,
    "ar,</w>": 3358,
    "pollution</w>": 3359,
    "size</w>": 3360,
    "mid": 3361,
    "running</w>": 3362,
    "plant": 3363,
    "agon": 3364,
    "event</w>": 3365,
    "travel</w>": 3366,
    "way.</w>": 3367,
    "yourself</w>": 3368,
    "interesting</w>": 3369,
    "Ple": 3370,
    "special</w>": 3371,
    "st,</w>": 3372,
    "udi": 3373,
    "cript</w>": 3374,
    "element</w>": 3375,
    "'.</w>": 3376,
    "pack": 3377,
    "atmosphere</w>": 3378,
    "extr": 3379,
    "sort": 3380,
    "summar": 3381,
    "results</w>": 3382,
    "ild</w>": 3383,
    "language.</w>": 3384,
    "scre": 3385,
    "taken</w>": 3386,
    "joy</w>": 3387,
    "recent</w>": 3388,
    "avig": 3389,
    "fication</w>": 3390,
    "qui": 3391,
    "speak": 3392,
    "ched</w>": 3393,
    "nut": 3394,
    "pite</w>": 3395,
    "costs</w>": 3396,
    "bright</w>": 3397,
    "Earth": 3398,
    "entr": 3399,
    "Learning</w>": 3400,
    "16": 3401,
    "atom": 3402,
    "device</w>": 3403,
    "kind</w>": 3404,
    "root</w>": 3405,
    "Ri": 3406,
    "pic": 3407,
    "event": 3408,
    "waste</w>": 3409,
    "building</w>": 3410,
    "warming</w>": 3411,
    "school</w>": 3412,
    "ine.</w>": 3413,
    "famous</w>": 3414,
    "increasingly</w>": 3415,
    "hear": 3416,
    "Op": 3417,
    "meaning": 3418,
    "target</w>": 3419,
    "hypo": 3420,
    "technologies</w>": 3421,
    "corpor": 3422,
    "primary</w>": 3423,
    "engaging</w>": 3424,
    "Sec": 3425,
    "faster</w>": 3426,
    "force</w>": 3427,
    "determined</w>": 3428,
    "imm": 3429,
    "Technology</w>": 3430,
    "pu": 3431,
    "possib": 3432,
    "true</w>": 3433,
    "ili": 3434,
    "understand": 3435,
    "hard": 3436,
    "tips</w>": 3437,
    "Custom": 3438,
    "tasks.</w>": 3439,
    "chain</w>": 3440,
    "maz": 3441,
    "summer</w>": 3442,
    "Yor": 3443,
    "long-": 3444,
    "togeth": 3445,
    "tell</w>": 3446,
    "tural</w>": 3447,
    "25": 3448,
    "t-": 3449,
    "sett": 3450,
    "oud</w>": 3451,
    "Deter": 3452,
    "issues</w>": 3453,
    "forc": 3454,
    "response</w>": 3455,
    "lot</w>": 3456,
    "exec": 3457,
    "treat": 3458,
    "chat": 3459,
    "satisfac": 3460,
    "situation</w>": 3461,
    "ga": 3462,
    "Please</w>": 3463,
    "polic": 3464,
    "sto": 3465,
    "memb": 3466,
    "issue</w>": 3467,
    "appreci": 3468,
    "Br": 3469,
    "Set</w>": 3470,
    "other.</w>": 3471,
    "Fren": 3472,
    "computers</w>": 3473,
    "7,</w>": 3474,
    "similar</w>": 3475,
    "ation:</w>": 3476,
    "Amaz": 3477,
    "As": 3478,
    "All</w>": 3479,
    "birds</w>": 3480,
    "princ": 3481,
    "diagno": 3482,
    "memor": 3483,
    "rise</w>": 3484,
    "sn": 3485,
    "test</w>": 3486,
    "piece</w>": 3487,
    "support": 3488,
    "tru": 3489,
    "measure</w>": 3490,
    "contain</w>": 3491,
    "meet</w>": 3492,
    "driven</w>": 3493,
    "navig": 3494,
    "poons</w>": 3495,
    "painting</w>": 3496,
    "ies.</w>": 3497,
    "diox": 3498,
    "ane</w>": 3499,
    "song</w>": 3500,
    "istic</w>": 3501,
    "Step</w>": 3502,
    "industri": 3503,
    "adverti": 3504,
    "buy</w>": 3505,
    "wav": 3506,
    "break</w>": 3507,
    "unc": 3508,
    "problems</w>": 3509,
    "post</w>": 3510,
    "values</w>": 3511,
    "mak": 3512,
    "addition,</w>": 3513,
    "1/2</w>": 3514,
    "fast</w>": 3515,
    "feature": 3516,
    "explo": 3517,
    "1.": 3518,
    "Bu": 3519,
    "people.</w>": 3520,
    "ny</w>": 3521,
    "ded.</w>": 3522,
    "existing</w>": 3523,
    "promote</w>": 3524,
    "strugg": 3525,
    ");</w>": 3526,
    "requests</w>": 3527,
    "enough</w>": 3528,
    "es?</w>": 3529,
    "addres": 3530,
    "minutes</w>": 3531,
    "states</w>": 3532,
    "dang": 3533,
    "serve</w>": 3534,
    "use": 3535,
    "Our</w>": 3536,
    "initi": 3537,
    "favor": 3538,
    "blog</w>": 3539,
    "years.</w>": 3540,
    "larger</w>": 3541,
    "ition,</w>": 3542,
    "vill": 3543,
    "nature</w>": 3544,
    "vised</w>": 3545,
    "dail": 3546,
    "industry</w>": 3547,
    "ink": 3548,
    "sam": 3549,
    "50": 3550,
    "second</w>": 3551,
    "change.</w>": 3552,
    "resear": 3553,
    "components</w>": 3554,
    "utili": 3555,
    "indic": 3556,
    "ious</w>": 3557,
    "relationships</w>": 3558,
    "rap": 3559,
    "behavior</w>": 3560,
    "groun": 3561,
    "ocean</w>": 3562,
    "mysteri": 3563,
    "becoming</w>": 3564,
    "Goog": 3565,
    "e(": 3566,
    "history</w>": 3567,
    "baking</w>": 3568,
    "political</w>": 3569,
    "trees</w>": 3570,
    "ssil</w>": 3571,
    "green": 3572,
    "vil</w>": 3573,
    "doing</w>": 3574,
    "whether</w>": 3575,
    ".com": 3576,
    "sign": 3577,
    "answ": 3578,
    "hon": 3579,
    "dered</w>": 3580,
    "ms.</w>": 3581,
    "plastic</w>": 3582,
    "consump": 3583,
    "mix": 3584,
    "head</w>": 3585,
    "antly</w>": 3586,
    "highest</w>": 3587,
    "de:</w>": 3588,
    "enjoy": 3589,
    "case</w>": 3590,
    "Soc": 3591,
    "independ": 3592,
    "vered</w>": 3593,
    "Good</w>": 3594,
    "processes</w>": 3595,
    "eping</w>": 3596,
    "scho": 3597,
    "fying</w>": 3598,
    "consist": 3599,
    "strong": 3600,
    "recipe</w>": 3601,
    "gent": 3602,
    "tree</w>": 3603,
    "begin": 3604,
    "dog</w>": 3605,
    "exercis": 3606,
    "meaningful</w>": 3607,
    "stream": 3608,
    "classify</w>": 3609,
    "erg": 3610,
    "ices</w>": 3611,
    "flic": 3612,
    "dial": 3613,
    "vibr": 3614,
    "name": 3615,
    "decre": 3616,
    "identi": 3617,
    "abo": 3618,
    "materials</w>": 3619,
    "novel</w>": 3620,
    "stres": 3621,
    "Vi": 3622,
    "highly</w>": 3623,
    "past": 3624,
    "ocol": 3625,
    "campaign": 3626,
    "Incre": 3627,
    "are.</w>": 3628,
    "chemical</w>": 3629,
    "networks</w>": 3630,
    "interpre": 3631,
    "world,</w>": 3632,
    "le:</w>": 3633,
    "cro": 3634,
    "ental</w>": 3635,
    "focused</w>": 3636,
    "effect</w>": 3637,
    "purchase</w>": 3638,
    "figure</w>": 3639,
    "rac": 3640,
    "organis": 3641,
    "lives</w>": 3642,
    "Determine</w>": 3643,
    "is.</w>": 3644,
    "pet</w>": 3645,
    "conve": 3646,
    "ries</w>": 3647,
    "ute</w>": 3648,
    "efficiency</w>": 3649,
    "contribut": 3650,
    "word.</w>": 3651,
    "asp": 3652,
    "consider</w>": 3653,
    "communicate</w>": 3654,
    "additional</w>": 3655,
    "Pot": 3656,
    "life,</w>": 3657,
    "hours</w>": 3658,
    "South</w>": 3659,
    "walking</w>": 3660,
    "scal": 3661,
    "loyal": 3662,
    "ing?</w>": 3663,
    "ant,</w>": 3664,
    "implic": 3665,
    "zz": 3666,
    "augh": 3667,
    "amet": 3668,
    "resh</w>": 3669,
    "bit</w>": 3670,
    "tasks,</w>": 3671,
    "orang": 3672,
    "Wat": 3673,
    "elebr": 3674,
    "Hum": 3675,
    "fe</w>": 3676,
    "ard": 3677,
    "paren": 3678,
    "roun": 3679,
    "cles</w>": 3680,
    "Change</w>": 3681,
    "board</w>": 3682,
    "consequenc": 3683,
    "restaurant</w>": 3684,
    "its,</w>": 3685,
    "review": 3686,
    "Imp": 3687,
    "thir": 3688,
    "ous,</w>": 3689,
    "author": 3690,
    "vac": 3691,
    "creativ": 3692,
    "HTM": 3693,
    "getting</w>": 3694,
    "qual": 3695,
    "However,</w>": 3696,
    "stars</w>": 3697,
    "\"I</w>": 3698,
    "tax</w>": 3699,
    "olo": 3700,
    "towards</w>": 3701,
    "Sal": 3702,
    "you.</w>": 3703,
    "located</w>": 3704,
    "War</w>": 3705,
    "measures</w>": 3706,
    "icro": 3707,
    "mamm": 3708,
    "Man": 3709,
    "ch,</w>": 3710,
    "revolution": 3711,
    "image</w>": 3712,
    "check</w>": 3713,
    "Se": 3714,
    "calculate</w>": 3715,
    "ash</w>": 3716,
    "service.</w>": 3717,
    "ink</w>": 3718,
    "9,</w>": 3719,
    "latest</w>": 3720,
    "anti": 3721,
    "accuracy</w>": 3722,
    "bor": 3723,
    "database</w>": 3724,
    "sales</w>": 3725,
    "integr": 3726,
    "LE": 3727,
    "ket": 3728,
    "query</w>": 3729,
    "act": 3730,
    "instructions</w>": 3731,
    "black</w>": 3732,
    "production</w>": 3733,
    "employees</w>": 3734,
    "Su": 3735,
    "sched": 3736,
    "daily</w>": 3737,
    "banan": 3738,
    "secre": 3739,
    "concer": 3740,
    "trends</w>": 3741,
    "une</w>": 3742,
    "fossil</w>": 3743,
    "causes</w>": 3744,
    "self.</w>": 3745,
    "energy.</w>": 3746,
    "consider": 3747,
    "tast": 3748,
    "opportunity</w>": 3749,
    "concep": 3750,
    "factors</w>": 3751,
    "esty": 3752,
    "forest</w>": 3753,
    "eating</w>": 3754,
    "tively</w>": 3755,
    "ping</w>": 3756,
    "review</w>": 3757,
    "ric": 3758,
    "ties</w>": 3759,
    "prep": 3760,
    "um,</w>": 3761,
    "Sol": 3762,
    "//</w>": 3763,
    "==</w>": 3764,
    "its.</w>": 3765,
    "goal</w>": 3766,
    "health.</w>": 3767,
    "soun": 3768,
    "atel": 3769,
    "200": 3770,
    "countr": 3771,
    "courage</w>": 3772,
    "output": 3773,
    "really</w>": 3774,
    "acces": 3775,
    "Using</w>": 3776,
    "recognition</w>": 3777,
    "Its</w>": 3778,
    "along</w>": 3779,
    "amounts</w>": 3780,
    "Ban": 3781,
    "liter": 3782,
    "virus</w>": 3783,
    "professional</w>": 3784,
    "Some</w>": 3785,
    "cast": 3786,
    "conflic": 3787,
    "US": 3788,
    "oxy": 3789,
    "ext": 3790,
    "store.</w>": 3791,
    "contact</w>": 3792,
    "position</w>": 3793,
    "er:</w>": 3794,
    "remin": 3795,
    "believe</w>": 3796,
    "citiz": 3797,
    "there": 3798,
    "timel": 3799,
    "ments,</w>": 3800,
    "arri": 3801,
    "automate</w>": 3802,
    "predict</w>": 3803,
    "exercise</w>": 3804,
    "English</w>": 3805,
    "risks</w>": 3806,
    "evid": 3807,
    "ate,</w>": 3808,
    "nature": 3809,
    "clean": 3810,
    "everyone</w>": 3811,
    "II": 3812,
    "ition.</w>": 3813,
    "purchas": 3814,
    "relationship</w>": 3815,
    "dy": 3816,
    "societ": 3817,
    "il,</w>": 3818,
    "cannot</w>": 3819,
    "platform</w>": 3820,
    "lifesty": 3821,
    "logo</w>": 3822,
    "nony": 3823,
    "charg": 3824,
    "trained</w>": 3825,
    "Uni": 3826,
    "Bi": 3827,
    "in.</w>": 3828,
    "resol": 3829,
    "mon</w>": 3830,
    "responsible</w>": 3831,
    "ement,</w>": 3832,
    "bility</w>": 3833,
    "seem": 3834,
    "Great</w>": 3835,
    "hope</w>": 3836,
    "archit": 3837,
    "gar</w>": 3838,
    "India</w>": 3839,
    "sleep</w>": 3840,
    "ular</w>": 3841,
    "less": 3842,
    "aci": 3843,
    "ar.</w>": 3844,
    "in,</w>": 3845,
    "player</w>": 3846,
    "lived</w>": 3847,
    "temperatures</w>": 3848,
    "favorite</w>": 3849,
    "CO": 3850,
    "prior": 3851,
    "characterist": 3852,
    "̦̦̦̦": 3853,
    "ate.</w>": 3854,
    "ine,</w>": 3855,
    "patient</w>": 3856,
    "sibility</w>": 3857,
    "Yes,</w>": 3858,
    "address</w>": 3859,
    "throughout</w>": 3860,
    "devices</w>": 3861,
    "changed</w>": 3862,
    "warm</w>": 3863,
    "ethical</w>": 3864,
    "all.</w>": 3865,
    "one,</w>": 3866,
    "ution.</w>": 3867,
    "future.</w>": 3868,
    "ush</w>": 3869,
    "prevent</w>": 3870,
    "approxim": 3871,
    "fail": 3872,
    "essay</w>": 3873,
    "tool</w>": 3874,
    "yel": 3875,
    "princi": 3876,
    "benefit</w>": 3877,
    "mysterious</w>": 3878,
    "argument</w>": 3879,
    "saw</w>": 3880,
    "phi": 3881,
    "Go": 3882,
    "chatbo": 3883,
    "interact</w>": 3884,
    "follows</w>": 3885,
    "o-": 3886,
    "studi": 3887,
    "Over": 3888,
    "rem": 3889,
    "pper": 3890,
    "izes</w>": 3891,
    "Sci": 3892,
    "accomp": 3893,
    "coff": 3894,
    "girl</w>": 3895,
    "account</w>": 3896,
    "wered</w>": 3897,
    "network": 3898,
    "Hel": 3899,
    "not": 3900,
    "turn</w>": 3901,
    "updat": 3902,
    "driving</w>": 3903,
    "Do": 3904,
    "data": 3905,
    "les,</w>": 3906,
    "Exam": 3907,
    "ination</w>": 3908,
    "style</w>": 3909,
    "ook</w>": 3910,
    "der,</w>": 3911,
    "action": 3912,
    "alization</w>": 3913,
    "ror</w>": 3914,
    "iness</w>": 3915,
    "os</w>": 3916,
    "began</w>": 3917,
    "include:</w>": 3918,
    "w.": 3919,
    "aint": 3920,
    "cover</w>": 3921,
    "ator</w>": 3922,
    "libr": 3923,
    "left</w>": 3924,
    "Have</w>": 3925,
    "sentences.</w>": 3926,
    "ents:</w>": 3927,
    "message</w>": 3928,
    "woo": 3929,
    "eventually</w>": 3930,
    "services.</w>": 3931,
    "use.</w>": 3932,
    "ju": 3933,
    "improving</w>": 3934,
    "label": 3935,
    "enjoy</w>": 3936,
    "fal": 3937,
    "App": 3938,
    "cars</w>": 3939,
    "consists</w>": 3940,
    "progress</w>": 3941,
    "Heal": 3942,
    "architect": 3943,
    "emerg": 3944,
    "',</w>": 3945,
    "remain</w>": 3946,
    "tablespoons</w>": 3947,
    "developed</w>": 3948,
    "longer</w>": 3949,
    "ring</w>": 3950,
    "dle</w>": 3951,
    "itch</w>": 3952,
    "tor": 3953,
    "big": 3954,
    "synony": 3955,
    "tical</w>": 3956,
    "rout": 3957,
    "though</w>": 3958,
    "resulting</w>": 3959,
    "const": 3960,
    "fer</w>": 3961,
    "tele": 3962,
    "achieve</w>": 3963,
    "omet": 3964,
    "www.": 3965,
    "incredi": 3966,
    "AI-": 3967,
    "ender</w>": 3968,
    "forward</w>": 3969,
    "topics</w>": 3970,
    "suggest</w>": 3971,
    "grap": 3972,
    "agre": 3973,
    "dden</w>": 3974,
    "nor": 3975,
    "ner.</w>": 3976,
    "expression</w>": 3977,
    "itch": 3978,
    "port": 3979,
    "Per": 3980,
    "are,</w>": 3981,
    "original</w>": 3982,
    "s-": 3983,
    "systems.</w>": 3984,
    "conduc": 3985,
    "town</w>": 3986,
    "Thank</w>": 3987,
    "freed": 3988,
    "sho": 3989,
    "perspec": 3990,
    "storm</w>": 3991,
    "analysi": 3992,
    "cop": 3993,
    "lu": 3994,
    "once</w>": 3995,
    "print</w>": 3996,
    "traff": 3997,
    "colle": 3998,
    "recycl": 3999,
    "giving</w>": 4000,
    "noun": 4001,
    "ness": 4002,
    "connect</w>": 4003,
    "heav": 4004,
    "hun": 4005,
    "iPh": 4006,
    "flow</w>": 4007,
    "electric": 4008,
    "assive</w>": 4009,
    "approach</w>": 4010,
    "fresh</w>": 4011,
    "home.</w>": 4012,
    "safe</w>": 4013,
    "supervised</w>": 4014,
    "Pol": 4015,
    "triangle</w>": 4016,
    "Climate</w>": 4017,
    "ancient</w>": 4018,
    "soon</w>": 4019,
    "Google</w>": 4020,
    "grav": 4021,
    "explanation.</w>": 4022,
    "desired</w>": 4023,
    "insights</w>": 4024,
    "symbo": 4025,
    "place.</w>": 4026,
    "French</w>": 4027,
    "degrees</w>": 4028,
    "asc": 4029,
    "wanted</w>": 4030,
    "Revol": 4031,
    "anything</w>": 4032,
    "budget</w>": 4033,
    "stric": 4034,
    "age": 4035,
    "slow": 4036,
    "ously</w>": 4037,
    "flav": 4038,
    "rising</w>": 4039,
    "3:</w>": 4040,
    "le-": 4041,
    "perform</w>": 4042,
    "happy</w>": 4043,
    "ID": 4044,
    "Both</w>": 4045,
    "celebr": 4046,
    "2.": 4047,
    "Dear</w>": 4048,
    "instead</w>": 4049,
    "more.</w>": 4050,
    "video</w>": 4051,
    "ribu": 4052,
    "reliable</w>": 4053,
    "planet</w>": 4054,
    "parts</w>": 4055,
    "trying</w>": 4056,
    "recommend": 4057,
    "vering</w>": 4058,
    "ness.</w>": 4059,
    "technology.</w>": 4060,
    "ped</w>": 4061,
    "vision</w>": 4062,
    "member</w>": 4063,
    "hu": 4064,
    "conclus": 4065,
    "you?</w>": 4066,
    "hot</w>": 4067,
    "assistant</w>": 4068,
    "culture</w>": 4069,
    "And</w>": 4070,
    "ont</w>": 4071,
    "learning.</w>": 4072,
    "book": 4073,
    "ad.</w>": 4074,
    "diet</w>": 4075,
    "greenhouse</w>": 4076,
    "ton": 4077,
    "foot": 4078,
    "automated</w>": 4079,
    "finding</w>": 4080,
    "oun</w>": 4081,
    "RO": 4082,
    "l,</w>": 4083,
    "Do</w>": 4084,
    "subject</w>": 4085,
    "smaller</w>": 4086,
    "voice</w>": 4087,
    "storage</w>": 4088,
    "ful.</w>": 4089,
    "ton</w>": 4090,
    "temp": 4091,
    "les.</w>": 4092,
    "estab": 4093,
    "week": 4094,
    "where": 4095,
    "ert</w>": 4096,
    "cats</w>": 4097,
    "fro": 4098,
    "mission</w>": 4099,
    "mountain</w>": 4100,
    "far</w>": 4101,
    "butter</w>": 4102,
    "entert": 4103,
    "temperature": 4104,
    "information,</w>": 4105,
    "\":</w>": 4106,
    "meeting</w>": 4107,
    "choice</w>": 4108,
    "others</w>": 4109,
    "real-": 4110,
    "NL": 4111,
    "incenti": 4112,
    "tor</w>": 4113,
    "dark": 4114,
    "enh": 4115,
    "soft</w>": 4116,
    "ole</w>": 4117,
    "cra": 4118,
    "services,</w>": 4119,
    "Fe": 4120,
    "appli": 4121,
    "beneficial</w>": 4122,
    "task.</w>": 4123,
    "Intelligence</w>": 4124,
    "wei": 4125,
    "dn't</w>": 4126,
    "took</w>": 4127,
    "ection</w>": 4128,
    "party</w>": 4129,
    "arry</w>": 4130,
    "me.</w>": 4131,
    "metaphor</w>": 4132,
    "gramm": 4133,
    "2)</w>": 4134,
    "Ge": 4135,
    "bloo": 4136,
    "ies,</w>": 4137,
    "got</w>": 4138,
    "Earth</w>": 4139,
    "improv": 4140,
    "Tim": 4141,
    "1,": 4142,
    "paramet": 4143,
    "Autom": 4144,
    "tered</w>": 4145,
    "chick": 4146,
    "by": 4147,
    "text,</w>": 4148,
    "scap": 4149,
    "little</w>": 4150,
    "testing</w>": 4151,
    "before": 4152,
    "complex": 4153,
    "illi": 4154,
    "words,</w>": 4155,
    "occur": 4156,
    "beh": 4157,
    "particular</w>": 4158,
    "Gu": 4159,
    "real</w>": 4160,
    "phras": 4161,
    "educational</w>": 4162,
    "ders</w>": 4163,
    "His</w>": 4164,
    "limited</w>": 4165,
    "relax": 4166,
    "neur": 4167,
    "allow": 4168,
    "efficienc": 4169,
    "Inv": 4170,
    "Reduc": 4171,
    "acks</w>": 4172,
    "e's</w>": 4173,
    "comb": 4174,
    "100.</w>": 4175,
    "wr": 4176,
    "robot</w>": 4177,
    "mean</w>": 4178,
    "peace": 4179,
    "pepper": 4180,
    "pieces</w>": 4181,
    "survi": 4182,
    "kchain</w>": 4183,
    "Rep": 4184,
    "sou": 4185,
    "Nat": 4186,
    "estim": 4187,
    "Amazon</w>": 4188,
    "aS": 4189,
    "prob": 4190,
    "dynam": 4191,
    "high-": 4192,
    "extreme</w>": 4193,
    "sem": 4194,
    "rhy": 4195,
    "se:</w>": 4196,
    "thy</w>": 4197,
    "pandemic</w>": 4198,
    "is,</w>": 4199,
    "ken</w>": 4200,
    "outcom": 4201,
    "customers.</w>": 4202,
    "s;</w>": 4203,
    "particip": 4204,
    "ent:</w>": 4205,
    "ryp": 4206,
    "energy,</w>": 4207,
    "friend</w>": 4208,
    "Tur": 4209,
    "Other</w>": 4210,
    "wild": 4211,
    "D.</w>": 4212,
    "interface</w>": 4213,
    "quo": 4214,
    "implications</w>": 4215,
    "below</w>": 4216,
    "Which</w>": 4217,
    "fit": 4218,
    "cups</w>": 4219,
    "Fi": 4220,
    "wel": 4221,
    "nutr": 4222,
    "onstr": 4223,
    "among</w>": 4224,
    "fer": 4225,
    "schedul": 4226,
    "exic": 4227,
    "ain.</w>": 4228,
    "operating</w>": 4229,
    "separ": 4230,
    "clean</w>": 4231,
    "breath": 4232,
    "exploring</w>": 4233,
    "hic</w>": 4234,
    "ained</w>": 4235,
    "Europ": 4236,
    "layer</w>": 4237,
    "possible.</w>": 4238,
    "music</w>": 4239,
    "story.</w>": 4240,
    "surpri": 4241,
    "Organ": 4242,
    "expect": 4243,
    "prec": 4244,
    "sup": 4245,
    "system,</w>": 4246,
    "York</w>": 4247,
    "conveni": 4248,
    "itation</w>": 4249,
    "adjectives</w>": 4250,
    "wi": 4251,
    "else</w>": 4252,
    "Cor": 4253,
    "Research</w>": 4254,
    "alle": 4255,
    "vegetables</w>": 4256,
    "Emp": 4257,
    "ness,</w>": 4258,
    "ated.</w>": 4259,
    "goals.</w>": 4260,
    "e!</w>": 4261,
    "pleas": 4262,
    "cities</w>": 4263,
    "named</w>": 4264,
    "Social</w>": 4265,
    "gol": 4266,
    "sides</w>": 4267,
    "td": 4268,
    "healthcare": 4269,
    "interactive</w>": 4270,
    "visual</w>": 4271,
    "big</w>": 4272,
    "heard</w>": 4273,
    "attention</w>": 4274,
    "polici": 4275,
    "course</w>": 4276,
    "manu": 4277,
    "version</w>": 4278,
    "powered</w>": 4279,
    "atmosphere.</w>": 4280,
    "shad": 4281,
    "weight</w>": 4282,
    "brave</w>": 4283,
    "cook</w>": 4284,
    "opped</w>": 4285,
    "Mexic": 4286,
    "ric</w>": 4287,
    "Natural</w>": 4288,
    "economy</w>": 4289,
    "10,</w>": 4290,
    "Rom": 4291,
    "iring</w>": 4292,
    "strength</w>": 4293,
    "run</w>": 4294,
    "s)</w>": 4295,
    "fa": 4296,
    "odd</w>": 4297,
    "ero": 4298,
    "invent": 4299,
    "mix</w>": 4300,
    "woman</w>": 4301,
    "progres": 4302,
    "HTML</w>": 4303,
    "she": 4304,
    "cod": 4305,
    "assign": 4306,
    "line.</w>": 4307,
    "oph": 4308,
    "sus": 4309,
    "ms,</w>": 4310,
    "policy</w>": 4311,
    "minutes.</w>": 4312,
    "represent</w>": 4313,
    "Start</w>": 4314,
    "lun": 4315,
    "believ": 4316,
    "Educ": 4317,
    "crimin": 4318,
    "topic.</w>": 4319,
    "approximately</w>": 4320,
    "grammat": 4321,
    "ning,</w>": 4322,
    "group": 4323,
    "dioxide</w>": 4324,
    "tweet</w>": 4325,
    "vibrant</w>": 4326,
    "compared</w>": 4327,
    "lar": 4328,
    "ability,</w>": 4329,
    "Ob": 4330,
    "50.</w>": 4331,
    "ice,</w>": 4332,
    "ability.</w>": 4333,
    "describes</w>": 4334,
    "random</w>": 4335,
    "nit": 4336,
    "ran</w>": 4337,
    "Selec": 4338,
    "Are</w>": 4339,
    "Despite</w>": 4340,
    "offering</w>": 4341,
    "machines</w>": 4342,
    "Each</w>": 4343,
    "12.</w>": 4344,
    "today": 4345,
    "JavaS": 4346,
    "conversation</w>": 4347,
    "ages.</w>": 4348,
    "programs</w>": 4349,
    "len": 4350,
    "reading</w>": 4351,
    "ger": 4352,
    "100": 4353,
    "last": 4354,
    "ucle": 4355,
    "way,</w>": 4356,
    "Sof": 4357,
    "headline</w>": 4358,
    "anxi": 4359,
    "Impro": 4360,
    "ello</w>": 4361,
    "scenari": 4362,
    "ghts,</w>": 4363,
    "ster</w>": 4364,
    "la</w>": 4365,
    "school": 4366,
    "learning,</w>": 4367,
    "distribut": 4368,
    "echan": 4369,
    "Choose</w>": 4370,
    "options</w>": 4371,
    "ty": 4372,
    "theme</w>": 4373,
    "method</w>": 4374,
    "enabled</w>": 4375,
    "olive</w>": 4376,
    "generally</w>": 4377,
    "Throu": 4378,
    "Earth's</w>": 4379,
    "yog": 4380,
    "ester": 4381,
    "Let</w>": 4382,
    "sul": 4383,
    "problem.</w>": 4384,
    "repe": 4385,
    "Te": 4386,
    "reason": 4387,
    "dedic": 4388,
    "izz": 4389,
    "Net": 4390,
    "influenc": 4391,
    "website.</w>": 4392,
    "fish": 4393,
    "orth</w>": 4394,
    "gal": 4395,
    "Introduc": 4396,
    "summary</w>": 4397,
    "stand</w>": 4398,
    "ining</w>": 4399,
    "excited</w>": 4400,
    "color": 4401,
    "long-term</w>": 4402,
    "Here</w>": 4403,
    "prote": 4404,
    "accurately</w>": 4405,
    "Can</w>": 4406,
    "lored</w>": 4407,
    "series</w>": 4408,
    "dou": 4409,
    "Canad": 4410,
    "enables</w>": 4411,
    "income</w>": 4412,
    "environment,</w>": 4413,
    "pas": 4414,
    "accep": 4415,
    "iPhone</w>": 4416,
    "uly</w>": 4417,
    "CT</w>": 4418,
    "awaren": 4419,
    "[i": 4420,
    "experiences</w>": 4421,
    "Instruc": 4422,
    "life": 4423,
    "-19</w>": 4424,
    "!\"</w>": 4425,
    "out.</w>": 4426,
    "recognize</w>": 4427,
    "words:</w>": 4428,
    "preferen": 4429,
    "201": 4430,
    "2,": 4431,
    "encourages</w>": 4432,
    "laugh": 4433,
    "fun</w>": 4434,
    "river</w>": 4435,
    "characteristics</w>": 4436,
    "sequence</w>": 4437,
    "organized</w>": 4438,
    "recently</w>": 4439,
    "compare</w>": 4440,
    "ous.</w>": 4441,
    "you're</w>": 4442,
    "problem-": 4443,
    "model.</w>": 4444,
    "composed</w>": 4445,
    "Sar": 4446,
    "Don": 4447,
    "night.</w>": 4448,
    "gas</w>": 4449,
    "Sub": 4450,
    "camer": 4451,
    "order.</w>": 4452,
    "art": 4453,
    "range(": 4454,
    "focuses</w>": 4455,
    "y!</w>": 4456,
    "pen": 4457,
    "demand</w>": 4458,
    "stands</w>": 4459,
    "organizations</w>": 4460,
    "gan</w>": 4461,
    "proper</w>": 4462,
    "express</w>": 4463,
    "practical</w>": 4464,
    "demonstr": 4465,
    "children": 4466,
    "engine</w>": 4467,
    "positi": 4468,
    "peace</w>": 4469,
    "fram": 4470,
    "beach": 4471,
    "can't</w>": 4472,
    "Hello</w>": 4473,
    "said</w>": 4474,
    "images</w>": 4475,
    "languages</w>": 4476,
    "sand": 4477,
    "loss</w>": 4478,
    "shape</w>": 4479,
    "approach": 4480,
    "ident": 4481,
    "released</w>": 4482,
    "Sup": 4483,
    "Life</w>": 4484,
    "consequences</w>": 4485,
    "illing</w>": 4486,
    "explor": 4487,
    "advantage</w>": 4488,
    "report</w>": 4489,
    "atives</w>": 4490,
    "e\"</w>": 4491,
    "standing</w>": 4492,
    "drag": 4493,
    "Dec": 4494,
    "mole": 4495,
    "nee": 4496,
    "valid</w>": 4497,
    "mou": 4498,
    "No,</w>": 4499,
    "maximum</w>": 4500,
    "dow": 4501,
    "work,</w>": 4502,
    "red": 4503,
    "ah</w>": 4504,
    "sports</w>": 4505,
    "Ever": 4506,
    "water,</w>": 4507,
    "alize</w>": 4508,
    "appl": 4509,
    "eat</w>": 4510,
    "Syst": 4511,
    "mechan": 4512,
    "Select</w>": 4513,
    "lights</w>": 4514,
    "ordin": 4515,
    "ened</w>": 4516,
    "red.</w>": 4517,
    "istr": 4518,
    "pover": 4519,
    "spending</w>": 4520,
    "aris": 4521,
    "international</w>": 4522,
    "decision-": 4523,
    "rights</w>": 4524,
    "c.</w>": 4525,
    "construc": 4526,
    "batter": 4527,
    "town": 4528,
    "asked</w>": 4529,
    "umb": 4530,
    "rid": 4531,
    "5-": 4532,
    "started</w>": 4533,
    "purpos": 4534,
    "aling</w>": 4535,
    "business.</w>": 4536,
    "GPT": 4537,
    "fit</w>": 4538,
    "enable</w>": 4539,
    "surroun": 4540,
    "tro": 4541,
    "Develop": 4542,
    "interest</w>": 4543,
    "outside</w>": 4544,
    "atist": 4545,
    "light,</w>": 4546,
    "laws</w>": 4547,
    "At</w>": 4548,
    "dialog": 4549,
    "landscap": 4550,
    "cheese</w>": 4551,
    "sident</w>": 4552,
    "string": 4553,
    "brand</w>": 4554,
    "together.</w>": 4555,
    "boar": 4556,
    ".com/": 4557,
    "predictions</w>": 4558,
    "analyzing</w>": 4559,
    "tions:</w>": 4560,
    "scale</w>": 4561,
    "optimize</w>": 4562,
    "Est": 4563,
    "statement.</w>": 4564,
    "atory</w>": 4565,
    "activities.</w>": 4566,
    "salt</w>": 4567,
    "coffee</w>": 4568,
    "People</w>": 4569,
    "yet</w>": 4570,
    "direct</w>": 4571,
    "eggs</w>": 4572,
    "accomplish": 4573,
    "variable</w>": 4574,
    "spar": 4575,
    "surface</w>": 4576,
    "card</w>": 4577,
    "hidden</w>": 4578,
    "article.</w>": 4579,
    "ver.</w>": 4580,
    "water.</w>": 4581,
    "tun": 4582,
    "ured</w>": 4583,
    "pursu": 4584,
    "list.</w>": 4585,
    "conserv": 4586,
    "ells</w>": 4587,
    "king,</w>": 4588,
    "ading</w>": 4589,
    "potenti": 4590,
    "liz": 4591,
    "steps.</w>": 4592,
    "emission": 4593,
    "protagon": 4594,
    "shar": 4595,
    "mathematical</w>": 4596,
    "candi": 4597,
    "even": 4598,
    "https://www.": 4599,
    "challenge</w>": 4600,
    "people,</w>": 4601,
    "draw": 4602,
    "morning</w>": 4603,
    "talk</w>": 4604,
    "ona": 4605,
    "cou": 4606,
    "members</w>": 4607,
    "Langu": 4608,
    "\")</w>": 4609,
    "community</w>": 4610,
    "persu": 4611,
    "asive</w>": 4612,
    "3.": 4613,
    "Ingre": 4614,
    "Ingredi": 4615,
    "jud": 4616,
    "allowed</w>": 4617,
    "laptop</w>": 4618,
    "Span": 4619,
    "authenti": 4620,
    "vegetabl": 4621,
    "memory</w>": 4622,
    "onto</w>": 4623,
    "performance.</w>": 4624,
    "3-": 4625,
    "sugar</w>": 4626,
    "pet": 4627,
    "interac": 4628,
    "strange</w>": 4629,
    "Off": 4630,
    "Cel": 4631,
    "early</w>": 4632,
    "continue</w>": 4633,
    "ket</w>": 4634,
    "squared</w>": 4635,
    "gene": 4636,
    "VID": 4637,
    "contex": 4638,
    "guid": 4639,
    "month": 4640,
    "reh": 4641,
    "distinc": 4642,
    "202": 4643,
    "sauc": 4644,
    "China</w>": 4645,
    "facts</w>": 4646,
    "avoid</w>": 4647,
    "near</w>": 4648,
    "swe": 4649,
    "delicious</w>": 4650,
    "held</w>": 4651,
    "’t</w>": 4652,
    "During</w>": 4653,
    "innovative</w>": 4654,
    "ary.</w>": 4655,
    "handle</w>": 4656,
    "cent</w>": 4657,
    "formul": 4658,
    "under</w>": 4659,
    "hal": 4660,
    "valuable</w>": 4661,
    "knew</w>": 4662,
    "iter": 4663,
    "effectiv": 4664,
    "cold</w>": 4665,
    "billion</w>": 4666,
    "entertain": 4667,
    "emb": 4668,
    "shows</w>": 4669,
    "robots</w>": 4670,
    "access": 4671,
    "encryp": 4672,
    "dialogue</w>": 4673,
    "resources.</w>": 4674,
    "diver": 4675,
    "adding</w>": 4676,
    "adi": 4677,
    "law</w>": 4678,
    "organic</w>": 4679,
    "put:</w>": 4680,
    "Banan": 4681,
    "ware</w>": 4682,
    "combination</w>": 4683,
    "my": 4684,
    "came</w>": 4685,
    "success.</w>": 4686,
    "Why</w>": 4687,
    "city.</w>": 4688,
    "ocr": 4689,
    "sycho": 4690,
    "oven</w>": 4691,
    "considered</w>": 4692,
    "prices</w>": 4693,
    "conver": 4694,
    "follow</w>": 4695,
    "sweet</w>": 4696,
    "process.</w>": 4697,
    "A:</w>": 4698,
    "period</w>": 4699,
    "is:</w>": 4700,
    "ht": 4701,
    "platform": 4702,
    "required</w>": 4703,
    "You": 4704,
    "detailed</w>": 4705,
    "na</w>": 4706,
    "behind</w>": 4707,
    "disrup": 4708,
    "groc": 4709,
    "commit": 4710,
    "bree": 4711,
    "equip": 4712,
    "below": 4713,
    "others.</w>": 4714,
    "ally.</w>": 4715,
    "career</w>": 4716,
    "ultim": 4717,
    "watch</w>": 4718,
    "advanc": 4719,
    "sources.</w>": 4720,
    "ama": 4721,
    "erial</w>": 4722,
    "attrac": 4723,
    "advanced</w>": 4724,
    "ector</w>": 4725,
    "sco": 4726,
    "North</w>": 4727,
    "skills,</w>": 4728,
    "wall": 4729,
    "delivery</w>": 4730,
    "trust": 4731,
    "ROM</w>": 4732,
    "htm": 4733,
    "Ret": 4734,
    "capabil": 4735,
    "already</w>": 4736,
    "rain</w>": 4737,
    "sleep": 4738,
    "enabling</w>": 4739,
    "ay.</w>": 4740,
    "rely</w>": 4741,
    "decisions.</w>": 4742,
    "rules</w>": 4743,
    "stit": 4744,
    "sugar": 4745,
    "commonly</w>": 4746,
    "4.": 4747,
    "Ang": 4748,
    "ain,</w>": 4749,
    "recommend</w>": 4750,
    "ense</w>": 4751,
    "knowledg": 4752,
    "150</w>": 4753,
    "Every": 4754,
    "tag": 4755,
    "Robo": 4756,
    "Ve": 4757,
    "dol": 4758,
    "audience</w>": 4759,
    "500</w>": 4760,
    "aliz": 4761,
    "mone": 4762,
    "eleph": 4763,
    "receive</w>": 4764,
    "attle</w>": 4765,
    "SELE": 4766,
    "quick</w>": 4767,
    "diversity</w>": 4768,
    "autonom": 4769,
    "itude</w>": 4770,
    "CS": 4771,
    "technology,</w>": 4772,
    "impacts</w>": 4773,
    "fits</w>": 4774,
    "COVID": 4775,
    "nucle": 4776,
    "SQ": 4777,
    "SELECT</w>": 4778,
    "compreh": 4779,
    "Pos": 4780,
    "regi": 4781,
    "flo": 4782,
    "manufac": 4783,
    "fuel": 4784,
    "sets</w>": 4785,
    "balance</w>": 4786,
    "Get</w>": 4787,
    "graphic</w>": 4788,
    "path</w>": 4789,
    "longest</w>": 4790,
    "plant</w>": 4791,
    "stories</w>": 4792,
    "loop</w>": 4793,
    "120</w>": 4794,
    "bled</w>": 4795,
    "tool": 4796,
    "ately,</w>": 4797,
    "Alice</w>": 4798,
    "sport": 4799,
    "applications.</w>": 4800,
    "Every</w>": 4801,
    "encourage</w>": 4802,
    "cooked</w>": 4803,
    "products.</w>": 4804,
    "weal": 4805,
    "deep": 4806,
    "modi": 4807,
    "1)</w>": 4808,
    "teacher</w>": 4809,
    "s!</w>": 4810,
    "monitor</w>": 4811,
    "acter": 4812,
    "Bre": 4813,
    "passage</w>": 4814,
    "close</w>": 4815,
    "walk</w>": 4816,
    "fundam": 4817,
    "hypothesis</w>": 4818,
    "finally</w>": 4819,
    "11.</w>": 4820,
    "ume</w>": 4821,
    "payment</w>": 4822,
    "starting</w>": 4823,
    "paragraph": 4824,
    "(AI": 4825,
    "medic": 4826,
    "wonder": 4827,
    "shel": 4828,
    "esp": 4829,
    "eds</w>": 4830,
    "studying</w>": 4831,
    "shared</w>": 4832,
    "alternative</w>": 4833,
    "managing</w>": 4834,
    "renhe": 4835,
    "brown</w>": 4836,
    "Euro": 4837,
    "a:</w>": 4838,
    "players</w>": 4839,
    "tures</w>": 4840,
    "effect": 4841,
    "Sw": 4842,
    "respond</w>": 4843,
    "Em": 4844,
    "infra": 4845,
    "ression</w>": 4846,
    "tin": 4847,
    "That</w>": 4848,
    "facial</w>": 4849,
    "everyday</w>": 4850,
    "investing</w>": 4851,
    "became</w>": 4852,
    "snow": 4853,
    "loves</w>": 4854,
    "systems,</w>": 4855,
    "itize</w>": 4856,
    "one's</w>": 4857,
    "gentle</w>": 4858,
    "wise</w>": 4859,
    "whereas</w>": 4860,
    "24</w>": 4861,
    "ideal</w>": 4862,
    "smart": 4863,
    "90.</w>": 4864,
    "pal": 4865,
    "Elec": 4866,
    "themsel": 4867,
    "cultural</w>": 4868,
    "ning.</w>": 4869,
    "affect</w>": 4870,
    "account": 4871,
    "s\"</w>": 4872,
    "traffic</w>": 4873,
    "dataset</w>": 4874,
    "ahrenhe": 4875,
    "il.</w>": 4876,
    "val</w>": 4877,
    "y\"</w>": 4878,
    "feelings</w>": 4879,
    "analytics</w>": 4880,
    "colum": 4881,
    "adventure</w>": 4882,
    "FROM</w>": 4883,
    "ages,</w>": 4884,
    "diverse</w>": 4885,
    "Worl": 4886,
    "strategi": 4887,
    "numbers.</w>": 4888,
    "numerous</w>": 4889,
    "strali": 4890,
    "16</w>": 4891,
    "cake</w>": 4892,
    "Oce": 4893,
    "ories</w>": 4894,
    "30": 4895,
    "Eg": 4896,
    "array": 4897,
    "join</w>": 4898,
    "grammar</w>": 4899,
    "night,</w>": 4900,
    "ER": 4901,
    "ki": 4902,
    "nical</w>": 4903,
    "Global</w>": 4904,
    "mit": 4905,
    "hold</w>": 4906,
    "stored</w>": 4907,
    "ced": 4908,
    "discuss</w>": 4909,
    "near": 4910,
    "ky</w>": 4911,
    "fall": 4912,
    "check": 4913,
    "Sun": 4914,
    "tend</w>": 4915,
    "ways.</w>": 4916,
    "deb": 4917,
    "France</w>": 4918,
    "project.</w>": 4919,
    "h,</w>": 4920,
    "native</w>": 4921,
    "call</w>": 4922,
    "lost</w>": 4923,
    "survey</w>": 4924,
    "Who</w>": 4925,
    "context</w>": 4926,
    "consumption</w>": 4927,
    "60.</w>": 4928,
    "So": 4929,
    "dia</w>": 4930,
    "breaks</w>": 4931,
    "decrease</w>": 4932,
    "cut": 4933,
    "ocolate</w>": 4934,
    "ais": 4935,
    "classic</w>": 4936,
    "ose</w>": 4937,
    "internet": 4938,
    "Brit": 4939,
    "enty</w>": 4940,
    "quantum</w>": 4941,
    "Through</w>": 4942,
    "thinking</w>": 4943,
    "beach</w>": 4944,
    "zer": 4945,
    "Name]</w>": 4946,
    "ipul": 4947,
    "material</w>": 4948,
    "ative.</w>": 4949,
    "containing</w>": 4950,
    "choose</w>": 4951,
    "2020</w>": 4952,
    "establish": 4953,
    "molecul": 4954,
    "apple</w>": 4955,
    "philos": 4956,
    "foun": 4957,
    "tion:</w>": 4958,
    "moment</w>": 4959,
    "able": 4960,
    "gment": 4961,
    "sli": 4962,
    "cell</w>": 4963,
    "company.</w>": 4964,
    "ghts.</w>": 4965,
    "skills.</w>": 4966,
    "thought</w>": 4967,
    "Num": 4968,
    "starts</w>": 4969,
    "usi": 4970,
    "depending</w>": 4971,
    "food,</w>": 4972,
    "experienced</w>": 4973,
    "host": 4974,
    "main": 4975,
    "light.</w>": 4976,
    "visit</w>": 4977,
    "needs.</w>": 4978,
    "80.</w>": 4979,
    "rent</w>": 4980,
    "..": 4981,
    "umin": 4982,
    "tail": 4983,
    "tracking</w>": 4984,
    "Australi": 4985,
    "advice</w>": 4986,
    "suff": 4987,
    "influence</w>": 4988,
    "ative,</w>": 4989,
    "cryp": 4990,
    "trust</w>": 4991,
    "Micro": 4992,
    "promp": 4993,
    "connection</w>": 4994,
    "Ele": 4995,
    "lete</w>": 4996,
    "Gener": 4997,
    "cool</w>": 4998,
    "ake.</w>": 4999,
    "authentic": 5000,
    "language,</w>": 5001,
    "chr": 5002,
    "evidence</w>": 5003,
    "))</w>": 5004,
    "drive</w>": 5005,
    "ty.</w>": 5006,
    "balanced</w>": 5007,
    "developer": 5008,
    "jects</w>": 5009,
    "today.</w>": 5010,
    "responding</w>": 5011,
    "theory</w>": 5012,
    "Chec": 5013,
    "dre": 5014,
    "everything</w>": 5015,
    "amb": 5016,
    "viol": 5017,
    "oppos": 5018,
    "citizens</w>": 5019,
    "mptom": 5020,
    "Sy": 5021,
    "Evalu": 5022,
    "Ingredients:</w>": 5023,
    "food.</w>": 5024,
    "year.</w>": 5025,
    "manipul": 5026,
    "vast</w>": 5027,
    "option</w>": 5028,
    "remove</w>": 5029,
    "ligh": 5030,
    "garden": 5031,
    "famili": 5032,
    "report": 5033,
    "aware</w>": 5034,
    "replac": 5035,
    "text": 5036,
    "situation.</w>": 5037,
    "fact</w>": 5038,
    "factor</w>": 5039,
    "satisfaction</w>": 5040,
    "bag": 5041,
    "sky,</w>": 5042,
    "ustr": 5043,
    "Eating</w>": 5044,
    "hydro": 5045,
    "loyalty</w>": 5046,
    "capable</w>": 5047,
    "Celsi": 5048,
    "intelligent</w>": 5049,
    "Imag": 5050,
    "conveys</w>": 5051,
    "199": 5052,
    "Read</w>": 5053,
    "third</w>": 5054,
    "Bus": 5055,
    "pay</w>": 5056,
    "collection</w>": 5057,
    "room.</w>": 5058,
    "slowly</w>": 5059,
    "product": 5060,
    "reaching</w>": 5061,
    "eyes</w>": 5062,
    "3)</w>": 5063,
    "110.</w>": 5064,
    "integ": 5065,
    "Am": 5066,
    "opinion</w>": 5067,
    "kitch": 5068,
    "hear</w>": 5069,
    "document</w>": 5070,
    "ony": 5071,
    "freedom</w>": 5072,
    "horiz": 5073,
    "stac": 5074,
    "spr": 5075,
    "Cali": 5076,
    "Califor": 5077,
    "Californi": 5078,
    "ans,</w>": 5079,
    "consumer</w>": 5080,
    "lives.</w>": 5081,
    "intu": 5082,
    "remember</w>": 5083,
    "itam": 5084,
    "oxygen</w>": 5085,
    "ference</w>": 5086,
    "Place</w>": 5087,
    "aged</w>": 5088,
    "forest.</w>": 5089,
    "mod": 5090,
    "et's</w>": 5091,
    "fix": 5092,
    "today</w>": 5093,
    "poem": 5094,
    "practices</w>": 5095,
    "Examples</w>": 5096,
    "widely</w>": 5097,
    "entire</w>": 5098,
    "adjust</w>": 5099,
    "distance</w>": 5100,
    "definition</w>": 5101,
    "input.</w>": 5102,
    "policies</w>": 5103,
    "collaboration</w>": 5104,
    "causing</w>": 5105,
    "Fl": 5106,
    "growing</w>": 5107,
    "spent</w>": 5108,
    "Europe": 5109,
    "legal</w>": 5110,
    "incorpor": 5111,
    "mind</w>": 5112,
    "States.</w>": 5113,
    "built</w>": 5114,
    "le's</w>": 5115,
    "song": 5116,
    "aim": 5117,
    "regular": 5118,
    "Lin": 5119,
    "cyber": 5120,
    "preser": 5121,
    "Not</w>": 5122,
    "Geor": 5123,
    "First,</w>": 5124,
    "adem": 5125,
    "suggests</w>": 5126,
    "Cam": 5127,
    "hoo": 5128,
    "plenty</w>": 5129,
    "expens": 5130,
    "illustr": 5131,
    "illed</w>": 5132,
    "sign</w>": 5133,
    "contain": 5134,
    "regularly</w>": 5135,
    "drin": 5136,
    "in-": 5137,
    "Reg": 5138,
    "industry.</w>": 5139,
    "selection</w>": 5140,
    "sert</w>": 5141,
    "engineering</w>": 5142,
    "remote</w>": 5143,
    "classification</w>": 5144,
    "I.</w>": 5145,
    "punc": 5146,
    "ay,</w>": 5147,
    "Ke": 5148,
    "estimated</w>": 5149,
    "health,</w>": 5150,
    "adul": 5151,
    "Fahrenhe": 5152,
    "statist": 5153,
    "employee</w>": 5154,
    "Franc": 5155,
    "(AI)</w>": 5156,
    "use,</w>": 5157,
    "display</w>": 5158,
    "Fal": 5159,
    "face.</w>": 5160,
    "park</w>": 5161,
    "rather</w>": 5162,
    "fruits</w>": 5163,
    "presentation</w>": 5164,
    "blockchain</w>": 5165,
    "atoes</w>": 5166,
    "Angel": 5167,
    "goods</w>": 5168,
    "st.</w>": 5169,
    "40.</w>": 5170,
    "refers</w>": 5171,
    "fire</w>": 5172,
    "databas": 5173,
    "previ": 5174,
    "Utili": 5175,
    "AB": 5176,
    "places</w>": 5177,
    "Hy": 5178,
    "alo": 5179,
    "nutri": 5180,
    "Deep</w>": 5181,
    "train</w>": 5182,
    "above</w>": 5183,
    "start": 5184,
    "sky.</w>": 5185,
    "Ber": 5186,
    "cum": 5187,
    "via</w>": 5188,
    "advice.</w>": 5189,
    "apples</w>": 5190,
    "gives</w>": 5191,
    "informed</w>": 5192,
    "before.</w>": 5193,
    "jump": 5194,
    "score</w>": 5195,
    "destin": 5196,
    "privacy</w>": 5197,
    "196": 5198,
    "electron": 5199,
    "van": 5200,
    "pron": 5201,
    "critical</w>": 5202,
    "him.</w>": 5203,
    "omen": 5204,
    "obstac": 5205,
    "AP": 5206,
    "S.</w>": 5207,
    "fall</w>": 5208,
    "engage</w>": 5209,
    "low-": 5210,
    "proced": 5211,
    "110</w>": 5212,
    "linear</w>": 5213,
    "experiment</w>": 5214,
    "embr": 5215,
    "ective</w>": 5216,
    "encoun": 5217,
    "neutr": 5218,
    "feedback": 5219,
    "Mat": 5220,
    "There": 5221,
    "breaking</w>": 5222,
    "inging</w>": 5223,
    "70.</w>": 5224,
    "coast": 5225,
    "base</w>": 5226,
    "aving</w>": 5227,
    "timeline</w>": 5228,
    "migr": 5229,
    "ares</w>": 5230,
    "chees": 5231,
    "king.</w>": 5232,
    "meet": 5233,
    "voc": 5234,
    "moon</w>": 5235,
    "Process": 5236,
    "Harry</w>": 5237,
    "probability</w>": 5238,
    "begins</w>": 5239,
    "two-": 5240,
    "stores</w>": 5241,
    ".”</w>": 5242,
    "structured</w>": 5243,
    "amazing</w>": 5244,
    "box</w>": 5245,
    "useful</w>": 5246,
    "seemed</w>": 5247,
    "risk": 5248,
    "World": 5249,
    "agricul": 5250,
    "intelligence.</w>": 5251,
    "Bene": 5252,
    "played</w>": 5253,
    "grow</w>": 5254,
    "ce.</w>": 5255,
    "\"\"": 5256,
    "resili": 5257,
    "id,</w>": 5258,
    "maintaining</w>": 5259,
    "Brain": 5260,
    "Then,</w>": 5261,
    "1/4</w>": 5262,
    "garlic</w>": 5263,
    "illa</w>": 5264,
    "chance</w>": 5265,
    "errors</w>": 5266,
    "comfortable</w>": 5267,
    "phones</w>": 5268,
    "fish</w>": 5269,
    "ram": 5270,
    "vehicles</w>": 5271,
    "len(": 5272,
    "fewer</w>": 5273,
    "phen": 5274,
    "arity</w>": 5275,
    "problems.</w>": 5276,
    "psycho": 5277,
    "ing!</w>": 5278,
    "Stud": 5279,
    "ced</w>": 5280,
    "followed</w>": 5281,
    "ap</w>": 5282,
    "awareness</w>": 5283,
    "198": 5284,
    "waves</w>": 5285,
    "credit</w>": 5286,
    "30.</w>": 5287,
    "blood</w>": 5288,
    "alism</w>": 5289,
    "notic": 5290,
    "name,</w>": 5291,
    "fill</w>": 5292,
    "accurac": 5293,
    "structure,</w>": 5294,
    "poss": 5295,
    "absor": 5296,
    "structure.</w>": 5297,
    "numer": 5298,
    "plays</w>": 5299,
    "used.</w>": 5300,
    "scientists</w>": 5301,
    "180</w>": 5302,
    "replace</w>": 5303,
    "finish": 5304,
    "say</w>": 5305,
    "effectively</w>": 5306,
    "person's</w>": 5307,
    "ek</w>": 5308,
    "ad,</w>": 5309,
    "helpful</w>": 5310,
    "years,</w>": 5311,
    "ince": 5312,
    "bird</w>": 5313,
    "person.</w>": 5314,
    "leaves</w>": 5315,
    "smart</w>": 5316,
    "details</w>": 5317,
    "Asi": 5318,
    "fuels</w>": 5319,
    "society.</w>": 5320,
    "Sim": 5321,
    "Chor": 5322,
    "feet</w>": 5323,
    "Cat": 5324,
    "John": 5325,
    "formal</w>": 5326,
    "Tre": 5327,
    "moo": 5328,
    "fra": 5329,
    "walked</w>": 5330,
    "eler": 5331,
    "Sam": 5332,
    "define</w>": 5333,
    "facing</w>": 5334,
    "describing</w>": 5335,
    "140</w>": 5336,
    "fresh": 5337,
    "presence</w>": 5338,
    "canc": 5339,
    "raz": 5340,
    "Five</w>": 5341,
    "games</w>": 5342,
    "friends.</w>": 5343,
    "budget": 5344,
    "outdoor</w>": 5345,
    "Che": 5346,
    "cream</w>": 5347,
    "empa": 5348,
    "ation?</w>": 5349,
    "Internet</w>": 5350,
    "burning</w>": 5351,
    "itself.</w>": 5352,
    "dead": 5353,
    "action.</w>": 5354,
    "agu": 5355,
    "mut": 5356,
    "studies</w>": 5357,
    "JavaScript</w>": 5358,
    "currently</w>": 5359,
    "til": 5360,
    "Predic": 5361,
    "whis": 5362,
    "ma</w>": 5363,
    "looks</w>": 5364,
    "medium</w>": 5365,
    "18</w>": 5366,
    "Evaluate</w>": 5367,
    "resources,</w>": 5368,
    "pressure</w>": 5369,
    "red,</w>": 5370,
    "floo": 5371,
    "attemp": 5372,
    "meaning.</w>": 5373,
    "ato</w>": 5374,
    "forces</w>": 5375,
    "punctu": 5376,
    "secon": 5377,
    "Egyp": 5378,
    "disast": 5379,
    "Expl": 5380,
    "impres": 5381,
    "-to-": 5382,
    "gging</w>": 5383,
    "levels,</w>": 5384,
    "milli": 5385,
    "strum": 5386,
    "lean</w>": 5387,
    "Online</w>": 5388,
    "predictive</w>": 5389,
    "electricity</w>": 5390,
    "ky": 5391,
    "thr": 5392,
    "film</w>": 5393,
    "Translate</w>": 5394,
    "So</w>": 5395,
    "night": 5396,
    "teams</w>": 5397,
    "ets.</w>": 5398,
    "items.</w>": 5399,
    "location</w>": 5400,
    "side.</w>": 5401,
    "needed.</w>": 5402,
    "Ab": 5403,
    "45": 5404,
    "bowl,</w>": 5405,
    "pper</w>": 5406,
    "bs</w>": 5407,
    "unexpected</w>": 5408,
    "lock</w>": 5409,
    "learned</w>": 5410,
    "whole</w>": 5411,
    "Last": 5412,
    "erce</w>": 5413,
    "Day</w>": 5414,
    "iling</w>": 5415,
    "meal</w>": 5416,
    "chart</w>": 5417,
    "one-": 5418,
    "x,</w>": 5419,
    "peaceful</w>": 5420,
    "worked</w>": 5421,
    "competitive</w>": 5422,
    "Hello": 5423,
    "actionable</w>": 5424,
    "mixture</w>": 5425,
    "Computer</w>": 5426,
    "persuasive</w>": 5427,
    "transl": 5428,
    "engagement</w>": 5429,
    "up.</w>": 5430,
    "eli": 5431,
    "emotions</w>": 5432,
    "cream": 5433,
    "birth": 5434,
    "appoint": 5435,
    "num</w>": 5436,
    "lifestyle</w>": 5437,
    "ass.</w>": 5438,
    "automation</w>": 5439,
    "reduced</w>": 5440,
    "emotional</w>": 5441,
    "creates</w>": 5442,
    "apolo": 5443,
    "power.</w>": 5444,
    "atoes,</w>": 5445,
    "120.</w>": 5446,
    "Language</w>": 5447,
    "effort": 5448,
    "keeping</w>": 5449,
    "d-": 5450,
    "particul": 5451,
    "idi": 5452,
    "Check</w>": 5453,
    "found": 5454,
    "speech": 5455,
    "tivel": 5456,
    "bott": 5457,
    "scrip": 5458,
    "Cloud</w>": 5459,
    "wants</w>": 5460,
    "mass</w>": 5461,
    "ards</w>": 5462,
    "count": 5463,
    "content.</w>": 5464,
    "aries</w>": 5465,
    "dish</w>": 5466,
    "Ale": 5467,
    "--</w>": 5468,
    "x.</w>": 5469,
    "Med": 5470,
    "simul": 5471,
    "middle</w>": 5472,
    "functions</w>": 5473,
    "technique</w>": 5474,
    "distr": 5475,
    "function": 5476,
    "pan": 5477,
    "cuis": 5478,
    "end,</w>": 5479,
    "appreciate</w>": 5480,
    "fear</w>": 5481,
    "smooth": 5482,
    "[1,</w>": 5483,
    "Verse</w>": 5484,
    "spend</w>": 5485,
    "center</w>": 5486,
    "family.</w>": 5487,
    "RA": 5488,
    "dinner</w>": 5489,
    "feat": 5490,
    "movement</w>": 5491,
    "groups</w>": 5492,
    "rewards</w>": 5493,
    "diseases</w>": 5494,
    "genetic</w>": 5495,
    "-3</w>": 5496,
    "a-": 5497,
    "dogs</w>": 5498,
    "COVID-19</w>": 5499,
    "served</w>": 5500,
    "Lond": 5501,
    "++": 5502,
    "(\"": 5503,
    "14</w>": 5504,
    "pizz": 5505,
    "results.</w>": 5506,
    "reality</w>": 5507,
    "malicious</w>": 5508,
    "igh</w>": 5509,
    "leads</w>": 5510,
    "yellow</w>": 5511,
    "abstr": 5512,
    "Softw": 5513,
    "user": 5514,
    "anyone</w>": 5515,
    "zy</w>": 5516,
    "ussi": 5517,
    "cess,</w>": 5518,
    "phenomen": 5519,
    "distributed</w>": 5520,
    "p.</w>": 5521,
    "ane": 5522,
    "experience,</w>": 5523,
    "ution,</w>": 5524,
    "ron</w>": 5525,
    "realistic</w>": 5526,
    "rais": 5527,
    "Brainstorm</w>": 5528,
    "platforms</w>": 5529,
    "numbers,</w>": 5530,
    "whel": 5531,
    "supply</w>": 5532,
    "bey": 5533,
    "house": 5534,
    "sharing</w>": 5535,
    "effort</w>": 5536,
    "opened</w>": 5537,
    "SQL</w>": 5538,
    "away.</w>": 5539,
    "__</w>": 5540,
    "tone</w>": 5541,
    "ug": 5542,
    "occ": 5543,
    "Inst": 5544,
    "City</w>": 5545,
    "comparis": 5546,
    "lying</w>": 5547,
    "password</w>": 5548,
    "missing</w>": 5549,
    "looked</w>": 5550,
    "San</w>": 5551,
    "leader</w>": 5552,
    "script</w>": 5553,
    "tai": 5554,
    "facil": 5555,
    "destruc": 5556,
    "Ul": 5557,
    "independent</w>": 5558,
    "world's</w>": 5559,
    "symptom": 5560,
    "conditions</w>": 5561,
    "Sort</w>": 5562,
    "college</w>": 5563,
    "hand</w>": 5564,
    "statem": 5565,
    "showing</w>": 5566,
    "greatest</w>": 5567,
    "orange</w>": 5568,
    "triang": 5569,
    "pepper</w>": 5570,
    "prioritize</w>": 5571,
    "der.</w>": 5572,
    "?\"</w>": 5573,
    "ett": 5574,
    "runs</w>": 5575,
    "tailored</w>": 5576,
    "select</w>": 5577,
    "technical</w>": 5578,
    "Name:</w>": 5579,
    "Lastly,</w>": 5580,
    "concise</w>": 5581,
    "up,</w>": 5582,
    "debu": 5583,
    "number": 5584,
    "book.</w>": 5585,
    "rics</w>": 5586,
    "ses,</w>": 5587,
    "significantly</w>": 5588,
    "extrac": 5589,
    "].</w>": 5590,
    "usage</w>": 5591,
    "Nor": 5592,
    "Pho": 5593,
    "Bl": 5594,
    "depres": 5595,
    "fly</w>": 5596,
    "accessible</w>": 5597,
    "abb": 5598,
    "sources,</w>": 5599,
    "publ": 5600,
    "al-": 5601,
    "rich</w>": 5602,
    "ag</w>": 5603,
    "exciting</w>": 5604,
    "(C": 5605,
    "protagonist</w>": 5606,
    "ensuring</w>": 5607,
    "interview": 5608,
    "pair</w>": 5609,
    "rely,</w>": 5610,
    "ads</w>": 5611,
    "inch</w>": 5612,
    "awber": 5613,
    "Exerc": 5614,
    "War": 5615,
    "overwhel": 5616,
    "after": 5617,
    "susp": 5618,
    "organization</w>": 5619,
    "Smith</w>": 5620,
    "vast": 5621,
    "son</w>": 5622,
    "fore,</w>": 5623,
    "elim": 5624,
    "La": 5625,
    "25.</w>": 5626,
    "nature.</w>": 5627,
    "rown</w>": 5628,
    "ses.</w>": 5629,
    "limit</w>": 5630,
    "logy</w>": 5631,
    "Taking</w>": 5632,
    "sionate</w>": 5633,
    "organisms</w>": 5634,
    "kin": 5635,
    "aint</w>": 5636,
    "respect</w>": 5637,
    "'re</w>": 5638,
    "lit</w>": 5639,
    "cool": 5640,
    "slow</w>": 5641,
    "conflict</w>": 5642,
    "own": 5643,
    "Japan</w>": 5644,
    "evaluate</w>": 5645,
    "input,</w>": 5646,
    "all-": 5647,
    "sect": 5648,
    "garl": 5649,
    "3,": 5650,
    "Since": 5651,
    "problem-solving</w>": 5652,
    "Product</w>": 5653,
    "arian</w>": 5654,
    "European</w>": 5655,
    "crow": 5656,
    "extract</w>": 5657,
    "Benefits</w>": 5658,
    "library</w>": 5659,
    "Min": 5660,
    "fundamental</w>": 5661,
    "thank</w>": 5662,
    "ax</w>": 5663,
    "usable</w>": 5664,
    "adjust": 5665,
    "Los</w>": 5666,
    "New": 5667,
    "bad</w>": 5668,
    "beginning</w>": 5669,
    "front</w>": 5670,
    "Customer</w>": 5671,
    "historical</w>": 5672,
    "est.</w>": 5673,
    "completed</w>": 5674,
    "reasons</w>": 5675,
    "geo": 5676,
    "dimen": 5677,
    "humans.</w>": 5678,
    "investment</w>": 5679,
    "sors</w>": 5680,
    "wash": 5681,
    "sent</w>": 5682,
    "window": 5683,
    "added</w>": 5684,
    "clim": 5685,
    "wis": 5686,
    "quer": 5687,
    "development.</w>": 5688,
    "install": 5689,
    "cost-": 5690,
    "grammatically</w>": 5691,
    "draw</w>": 5692,
    "kept</w>": 5693,
    "()</w>": 5694,
    "edge</w>": 5695,
    "adequ": 5696,
    "sounds</w>": 5697,
    "kind": 5698,
    "ats,</w>": 5699,
    "soil</w>": 5700,
    "Mal": 5701,
    "fields</w>": 5702,
    "ie</w>": 5703,
    "lement</w>": 5704,
    "our,</w>": 5705,
    "Solar</w>": 5706,
    "principles</w>": 5707,
    "capture</w>": 5708,
    "campaign</w>": 5709,
    "Ju": 5710,
    "stro": 5711,
    "ated,</w>": 5712,
    "40": 5713,
    "Dem": 5714,
    "html": 5715,
    "inter</w>": 5716,
    "amaz": 5717,
    "than": 5718,
    "Her</w>": 5719,
    "fire": 5720,
    "author</w>": 5721,
    "mes": 5722,
    "ug</w>": 5723,
    "Sincerely,</w>": 5724,
    "bol": 5725,
    "saving</w>": 5726,
    "clust": 5727,
    "assion</w>": 5728,
    "convert</w>": 5729,
    "miner": 5730,
    "tern</w>": 5731,
    "190</w>": 5732,
    "carro": 5733,
    "quickly.</w>": 5734,
    "King": 5735,
    "Anim": 5736,
    "dry</w>": 5737,
    "0;</w>": 5738,
    "130</w>": 5739,
    "cm</w>": 5740,
    "Big</w>": 5741,
    "nei": 5742,
    "boost</w>": 5743,
    "Water</w>": 5744,
    "spir": 5745,
    "extra</w>": 5746,
    "turing</w>": 5747,
    "pollution.</w>": 5748,
    "ators</w>": 5749,
    "basket": 5750,
    "pair": 5751,
    "fight</w>": 5752,
    "instrum": 5753,
    "society</w>": 5754,
    "operations</w>": 5755,
    "bar</w>": 5756,
    "Outline</w>": 5757,
    "upcoming</w>": 5758,
    "core</w>": 5759,
    "strive</w>": 5760,
    "tain</w>": 5761,
    "WH": 5762,
    "me,</w>": 5763,
    "symbol</w>": 5764,
    "chi": 5765,
    "months</w>": 5766,
    "ently.</w>": 5767,
    "clouds</w>": 5768,
    "Dr": 5769,
    "B:</w>": 5770,
    "chicken</w>": 5771,
    "invest</w>": 5772,
    "National</w>": 5773,
    "musical</w>": 5774,
    "build": 5775,
    "respect": 5776,
    "rewar": 5777,
    "announ": 5778,
    "faced</w>": 5779,
    "contribute</w>": 5780,
    "dex</w>": 5781,
    "afford": 5782,
    "75": 5783,
    "atomic</w>": 5784,
    "smallest</w>": 5785,
    "jobs</w>": 5786,
    "entre": 5787,
    "4:</w>": 5788,
    "Serve</w>": 5789,
    "cy</w>": 5790,
    "stop</w>": 5791,
    "golden</w>": 5792,
    "layers</w>": 5793,
    "backgroun": 5794,
    "tens": 5795,
    "nothing</w>": 5796,
    "development,</w>": 5797,
    "brid": 5798,
    "cells</w>": 5799,
    "lightly</w>": 5800,
    "Therefore,</w>": 5801,
    "eag": 5802,
    "cond": 5803,
    "nearby</w>": 5804,
    "abet": 5805,
    "linked</w>": 5806,
    "ord</w>": 5807,
    "tail</w>": 5808,
    "bright": 5809,
    "talking</w>": 5810,
    "planning</w>": 5811,
    "Cur": 5812,
    "reminder</w>": 5813,
    "ight": 5814,
    "trip</w>": 5815,
    "growth.</w>": 5816,
    "immedi": 5817,
    "consistent</w>": 5818,
    "Instructions:</w>": 5819,
    "Happ": 5820,
    "weak": 5821,
    "15.</w>": 5822,
    "tomor": 5823,
    "oriented</w>": 5824,
    "general</w>": 5825,
    "miles</w>": 5826,
    "gest</w>": 5827,
    "reven": 5828,
    "What's</w>": 5829,
    "body": 5830,
    "Ca": 5831,
    "gases</w>": 5832,
    "error</w>": 5833,
    "returns</w>": 5834,
    "Arrange</w>": 5835,
    "content,</w>": 5836,
    "on-": 5837,
    "performing</w>": 5838,
    "tall</w>": 5839,
    "phab": 5840,
    "serious</w>": 5841,
    "ancing</w>": 5842,
    "ival": 5843,
    "Russi": 5844,
    "bly</w>": 5845,
    "foods</w>": 5846,
    "centr": 5847,
    "entrepre": 5848,
    "truly</w>": 5849,
    "synthesis</w>": 5850,
    "chatbot</w>": 5851,
    "sort</w>": 5852,
    "AR": 5853,
    "Oc": 5854,
    "cloth": 5855,
    "Software</w>": 5856,
    "ternal</w>": 5857,
    "iding</w>": 5858,
    "g.</w>": 5859,
    "find": 5860,
    "civi": 5861,
    "times.</w>": 5862,
    "print(\"": 5863,
    "unning</w>": 5864,
    "universe</w>": 5865,
    "20.</w>": 5866,
    "battery</w>": 5867,
    "Vir": 5868,
    "brings</w>": 5869,
    "open-": 5870,
    "company's</w>": 5871,
    "finish</w>": 5872,
    "retri": 5873,
    "os,</w>": 5874,
    "concis": 5875,
    "coul": 5876,
    "four": 5877,
    "eggs,</w>": 5878,
    "mast": 5879,
    "gri": 5880,
    "implementing</w>": 5881,
    "measure": 5882,
    "decad": 5883,
    "event.</w>": 5884,
    "belief": 5885,
    "dres": 5886,
    "comprehensive</w>": 5887,
    "observ": 5888,
    "industrial</w>": 5889,
    "area.</w>": 5890,
    "uck</w>": 5891,
    "ban</w>": 5892,
    "Wash": 5893,
    "projects</w>": 5894,
    "ung": 5895,
    "160</w>": 5896,
    "Itali": 5897,
    "bought</w>": 5898,
    "diced</w>": 5899,
    "and.</w>": 5900,
    "ats": 5901,
    "good": 5902,
    "med</w>": 5903,
    "discounts</w>": 5904,
    "investig": 5905,
    "pollut": 5906,
    "DN": 5907,
    "75.</w>": 5908,
    "expensive</w>": 5909,
    "ed?</w>": 5910,
    "roman": 5911,
    "math</w>": 5912,
    "animals.</w>": 5913,
    "inside</w>": 5914,
    "vitam": 5915,
    "introducing</w>": 5916,
    "fox</w>": 5917,
    "8.": 5918,
    "met</w>": 5919,
    "philosoph": 5920,
    "succe": 5921,
    "itions</w>": 5922,
    "air,</w>": 5923,
    "solv": 5924,
    "private</w>": 5925,
    "elimin": 5926,
    "Fru": 5927,
    "6.": 5928,
    "market.</w>": 5929,
    "1-": 5930,
    "creature</w>": 5931,
    "Education</w>": 5932,
    "service,</w>": 5933,
    "s/": 5934,
    "developers</w>": 5935,
    "pattern</w>": 5936,
    "noun</w>": 5937,
    "star</w>": 5938,
    "Jack</w>": 5939,
    "mal</w>": 5940,
    "Many</w>": 5941,
    "German": 5942,
    "le.": 5943,
    "implies</w>": 5944,
    "connecting</w>": 5945,
    "kil": 5946,
    "dram": 5947,
    "us:</w>": 5948,
    "Ind": 5949,
    "execut": 5950,
    "Imagine</w>": 5951,
    "fuel</w>": 5952,
    "stir": 5953,
    "ons,</w>": 5954,
    "itate</w>": 5955,
    "patterns,</w>": 5956,
    "arc": 5957,
    "e.": 5958,
    "3D</w>": 5959,
    "advertis": 5960,
    "software.</w>": 5961,
    "concentr": 5962,
    "mun": 5963,
    "i,</w>": 5964,
    "bear</w>": 5965,
    "motion</w>": 5966,
    "discovered</w>": 5967,
    "Servic": 5968,
    "team.</w>": 5969,
    "atically</w>": 5970,
    "protecting</w>": 5971,
    "da</w>": 5972,
    "univer": 5973,
    "NN": 5974,
    "being.</w>": 5975,
    "ultimately</w>": 5976,
    "While</w>": 5977,
    "ions,</w>": 5978,
    "Braz": 5979,
    "Har": 5980,
    "ls</w>": 5981,
    "Germany</w>": 5982,
    "U.": 5983,
    "hion</w>": 5984,
    "cooking</w>": 5985,
    "British</w>": 5986,
    "plast": 5987,
    "server</w>": 5988,
    "Ris": 5989,
    "Earth.</w>": 5990,
    "13</w>": 5991,
    "accoun": 5992,
    "vegan</w>": 5993,
    "searching</w>": 5994,
    "support.</w>": 5995,
    "ry,</w>": 5996,
    "other,</w>": 5997,
    "capac": 5998,
    "\"\"\"</w>": 5999,
    "tract</w>": 6000,
    "eter</w>": 6001,
    "parents</w>": 6002,
    "icated</w>": 6003,
    "computer.</w>": 6004,
    "Rob": 6005,
    "productivity</w>": 6006,
    "Overall,</w>": 6007,
    "Boo": 6008,
    "ins,</w>": 6009,
    "divisible</w>": 6010,
    "count</w>": 6011,
    "Practic": 6012,
    "products,</w>": 6013,
    "thoughts</w>": 6014,
    "communication,</w>": 6015,
    "Toky": 6016,
    "̦̦̦̦̦̦̦̦": 6017,
    "picn": 6018,
    "enjoyed</w>": 6019,
    "grocery</w>": 6020,
    "six</w>": 6021,
    "hur": 6022,
    "Bir": 6023,
    "aspects</w>": 6024,
    "mainten": 6025,
    "skil": 6026,
    "begin</w>": 6027,
    "analo": 6028,
    "out,</w>": 6029,
    "magne": 6030,
    "ary,</w>": 6031,
    "President</w>": 6032,
    "95.</w>": 6033,
    "butter": 6034,
    "employment</w>": 6035,
    "5.": 6036,
    "century</w>": 6037,
    "background</w>": 6038,
    "movies</w>": 6039,
    "clu": 6040,
    "div": 6041,
    "A)</w>": 6042,
    "cros": 6043,
    "affects</w>": 6044,
    "Go</w>": 6045,
    "atively</w>": 6046,
    "ke.</w>": 6047,
    "foreign</w>": 6048,
    "gative</w>": 6049,
    "customers,</w>": 6050,
    "motivated</w>": 6051,
    "itor</w>": 6052,
    "meters</w>": 6053,
    "standard</w>": 6054,
    "garlic,</w>": 6055,
    "recognition,</w>": 6056,
    "logan</w>": 6057,
    "chocolate</w>": 6058,
    "comfort</w>": 6059,
    "lon": 6060,
    "achieved</w>": 6061,
    "l.</w>": 6062,
    "ty,</w>": 6063,
    "utilizing</w>": 6064,
    "struggling</w>": 6065,
    "eye</w>": 6066,
    "degree</w>": 6067,
    "dangerous</w>": 6068,
    "creatures</w>": 6069,
    "ants.</w>": 6070,
    "almost</w>": 6071,
    "village</w>": 6072,
    "friends,</w>": 6073,
    "ity:</w>": 6074,
    "press</w>": 6075,
    "bran": 6076,
    "actions.</w>": 6077,
    "slogan</w>": 6078,
    "aren": 6079,
    "record</w>": 6080,
    "rect": 6081,
    "documents</w>": 6082,
    "shir": 6083,
    "fair</w>": 6084,
    "stret": 6085,
    "hyper": 6086,
    "poverty</w>": 6087,
    "haik": 6088,
    "170</w>": 6089,
    "circle</w>": 6090,
    "Time</w>": 6091,
    "themselves</w>": 6092,
    "iled</w>": 6093,
    "contribu": 6094,
    "ERE</w>": 6095,
    "teen": 6096,
    "belong": 6097,
    "workplace</w>": 6098,
    "form.</w>": 6099,
    "prepar": 6100,
    "milk</w>": 6101,
    "Ag": 6102,
    "goals,</w>": 6103,
    "Is": 6104,
    "eral</w>": 6105,
    "aid</w>": 6106,
    "fications</w>": 6107,
    "kilomet": 6108,
    "________": 6109,
    "surrounded</w>": 6110,
    "itious</w>": 6111,
    "analysis,</w>": 6112,
    "brain</w>": 6113,
    "sample</w>": 6114,
    "F.</w>": 6115,
    "estic</w>": 6116,
    "ves,</w>": 6117,
    "potentially</w>": 6118,
    "+=</w>": 6119,
    "logi": 6120,
    "html></w>": 6121,
    "ains,</w>": 6122,
    "economy.</w>": 6123,
    "El": 6124,
    "code.</w>": 6125,
    "architecture</w>": 6126,
    "Washing": 6127,
    "45.</w>": 6128,
    "um.</w>": 6129,
    "ol</w>": 6130,
    "gather": 6131,
    "Increased</w>": 6132,
    "Lu": 6133,
    "Apple,</w>": 6134,
    "shop": 6135,
    "external</w>": 6136,
    "collect</w>": 6137,
    "manual</w>": 6138,
    "105.</w>": 6139,
    "dreams</w>": 6140,
    "distinct</w>": 6141,
    "s.": 6142,
    "and,</w>": 6143,
    "Dog": 6144,
    "finds</w>": 6145,
    "ames</w>": 6146,
    "staf": 6147,
    "processing,</w>": 6148,
    "ants,</w>": 6149,
    "facts.</w>": 6150,
    "atur": 6151,
    "particularly</w>": 6152,
    "tribut": 6153,
    "9.": 6154,
    "beyond</w>": 6155,
    "advertising</w>": 6156,
    "models.</w>": 6157,
    "narr": 6158,
    "biggest</w>": 6159,
    "vegetables,</w>": 6160,
    "Diff": 6161,
    "List": 6162,
    "track": 6163,
    "enter</w>": 6164,
    "Eleph": 6165,
    "extrem": 6166,
    "plans</w>": 6167,
    "adequate</w>": 6168,
    "technologi": 6169,
    "ent's</w>": 6170,
    "scene</w>": 6171,
    "ering,</w>": 6172,
    "Predict</w>": 6173,
    "regulations</w>": 6174,
    ",\"</w>": 6175,
    "arrang": 6176,
    "increases</w>": 6177,
    "igning</w>": 6178,
    "Bel": 6179,
    "match</w>": 6180,
    "Algorith": 6181,
    "coding</w>": 6182,
    "chil": 6183,
    "bonacc": 6184,
    "energy-": 6185,
    "Company</w>": 6186,
    "Mus": 6187,
    "websites</w>": 6188,
    "appears</w>": 6189,
    "ship.</w>": 6190,
    "Web</w>": 6191,
    "staying</w>": 6192,
    "type": 6193,
    "s'</w>": 6194,
    "autonomous</w>": 6195,
    "user-": 6196,
    "road</w>": 6197,
    "loved</w>": 6198,
    "Revolution</w>": 6199,
    "cycle</w>": 6200,
    "Remo": 6201,
    "ministr": 6202,
    "reve": 6203,
    "cin": 6204,
    "job.</w>": 6205,
    "staff</w>": 6206,
    "George</w>": 6207,
    "discrimin": 6208,
    "hydr": 6209,
    "closest</w>": 6210,
    "Utilize</w>": 6211,
    "table.</w>": 6212,
    "acceler": 6213,
    "vegetable</w>": 6214,
    "System": 6215,
    "Friend</w>": 6216,
    "-friendly</w>": 6217,
    "maximize</w>": 6218,
    "Chinese</w>": 6219,
    "That's</w>": 6220,
    "apologi": 6221,
    "Common</w>": 6222,
    "itary</w>": 6223,
    "events,</w>": 6224,
    "amp": 6225,
    "introduction</w>": 6226,
    "season</w>": 6227,
    "below.</w>": 6228,
    "Coun": 6229,
    "comman": 6230,
    "prepare</w>": 6231,
    "minutes,</w>": 6232,
    "reduces</w>": 6233,
    "intuitive</w>": 6234,
    "ahead</w>": 6235,
    "Employ": 6236,
    "dream</w>": 6237,
    "incentives</w>": 6238,
    "office</w>": 6239,
    "Java</w>": 6240,
    "ashion</w>": 6241,
    "Potter</w>": 6242,
    "pan</w>": 6243,
    "trou": 6244,
    "hardware</w>": 6245,
    "Doc": 6246,
    "unable</w>": 6247,
    "listening</w>": 6248,
    "a?</w>": 6249,
    "passive</w>": 6250,
    "serves</w>": 6251,
    "realized</w>": 6252,
    "prepared</w>": 6253,
    "Up": 6254,
    "user's</w>": 6255,
    "Quest": 6256,
    "ic:</w>": 6257,
    "Mary</w>": 6258,
    "Dig": 6259,
    "port</w>": 6260,
    "keep": 6261,
    "Be</w>": 6262,
    "himself</w>": 6263,
    "ets,</w>": 6264,
    "Improved</w>": 6265,
    "alis": 6266,
    "photo</w>": 6267,
    "max": 6268,
    "kingdom</w>": 6269,
    "vacation</w>": 6270,
    "Sud": 6271,
    "asing</w>": 6272,
    "network.</w>": 6273,
    "4)</w>": 6274,
    "umbled</w>": 6275,
    "ia,</w>": 6276,
    "fli": 6277,
    "gave</w>": 6278,
    "com</w>": 6279,
    "flowers</w>": 6280,
    "wind": 6281,
    "introduce</w>": 6282,
    "inequ": 6283,
    "country.</w>": 6284,
    "Cour": 6285,
    "teaching</w>": 6286,
    "design,</w>": 6287,
    "void</w>": 6288,
    "univers": 6289,
    "Let's</w>": 6290,
    "damage</w>": 6291,
    "attack": 6292,
    "shadow": 6293,
    "launch</w>": 6294,
    "input></w>": 6295,
    "id.</w>": 6296,
    "title": 6297,
    "buying</w>": 6298,
    "Creating</w>": 6299,
    "park.</w>": 6300,
    "Ci": 6301,
    "countries.</w>": 6302,
    "ve:</w>": 6303,
    "English": 6304,
    "quote</w>": 6305,
    "clothing</w>": 6306,
    "recycling</w>": 6307,
    "ake": 6308,
    "onavirus</w>": 6309,
    "puzz": 6310,
    "classes</w>": 6311,
    "flight</w>": 6312,
    "restric": 6313,
    "frame": 6314,
    "Italian</w>": 6315,
    "taxes</w>": 6316,
    "shop</w>": 6317,
    "rand": 6318,
    "td></w>": 6319,
    "confident</w>": 6320,
    "incredible</w>": 6321,
    "line,</w>": 6322,
    "land,</w>": 6323,
    "fair": 6324,
    "ats.</w>": 6325,
    "assist</w>": 6326,
    "generated</w>": 6327,
    "anticip": 6328,
    "':</w>": 6329,
    "achieving</w>": 6330,
    "17</w>": 6331,
    "dic</w>": 6332,
    "wait</w>": 6333,
    "game.</w>": 6334,
    "bra": 6335,
    "Suc": 6336,
    "enth": 6337,
    "creature": 6338,
    "Output:</w>": 6339,
    "ves.</w>": 6340,
    "85.</w>": 6341,
    "Dar": 6342,
    "involving</w>": 6343,
    "Smar": 6344,
    "Ry": 6345,
    "sugar,</w>": 6346,
    "galax": 6347,
    "Gats": 6348,
    "mark</w>": 6349,
    "ensity</w>": 6350,
    "excit": 6351,
    "governments</w>": 6352,
    "grade</w>": 6353,
    "immer": 6354,
    "rapid": 6355,
    "leave</w>": 6356,
    "Based</w>": 6357,
    "especi": 6358,
    "especially</w>": 6359,
    "experiences.</w>": 6360,
    "graphy</w>": 6361,
    "discussing</w>": 6362,
    "massive</w>": 6363,
    "labeled</w>": 6364,
    "eria</w>": 6365,
    "regar": 6366,
    "sandw": 6367,
    "her.</w>": 6368,
    "grat": 6369,
    "low,</w>": 6370,
    "tense</w>": 6371,
    "taste</w>": 6372,
    "acqu": 6373,
    "tically</w>": 6374,
    "difficulty</w>": 6375,
    "applications,</w>": 6376,
    "dise": 6377,
    "disease</w>": 6378,
    "distant</w>": 6379,
    "bound": 6380,
    "dress</w>": 6381,
    "routine</w>": 6382,
    "offic": 6383,
    "thern</w>": 6384,
    "complexity</w>": 6385,
    "ophi": 6386,
    "extremely</w>": 6387,
    "activity.</w>": 6388,
    "free": 6389,
    "ing\"</w>": 6390,
    "AT": 6391,
    "respir": 6392,
    "sad": 6393,
    "At": 6394,
    "laptop": 6395,
    "organize</w>": 6396,
    "body.</w>": 6397,
    "Accor": 6398,
    "anch</w>": 6399,
    "-oriented</w>": 6400,
    "cher</w>": 6401,
    "ity": 6402,
    "satisfied</w>": 6403,
    "Pan": 6404,
    "Bas": 6405,
    "watching</w>": 6406,
    "opposite</w>": 6407,
    "Replace</w>": 6408,
    "mistakes</w>": 6409,
    "assess": 6410,
    "WHERE</w>": 6411,
    "neigh": 6412,
    "Manag": 6413,
    "eted</w>": 6414,
    "points.</w>": 6415,
    "occas": 6416,
    "asted</w>": 6417,
    "Rear": 6418,
    "levels.</w>": 6419,
    "protection</w>": 6420,
    "opening</w>": 6421,
    "not.</w>": 6422,
    "ones.</w>": 6423,
    "noise</w>": 6424,
    "identifying</w>": 6425,
    "tes</w>": 6426,
    "server": 6427,
    "19.</w>": 6428,
    "brief</w>": 6429,
    "directly</w>": 6430,
    "4,": 6431,
    "security.</w>": 6432,
    "fon": 6433,
    "height</w>": 6434,
    "harmon": 6435,
    "audience.</w>": 6436,
    "car.</w>": 6437,
    "passionate</w>": 6438,
    "emails</w>": 6439,
    "Japan": 6440,
    "faces</w>": 6441,
    "ktu": 6442,
    "inqui": 6443,
    "Charac": 6444,
    "blank": 6445,
    "features.</w>": 6446,
    "Gar": 6447,
    "particles</w>": 6448,
    "summ": 6449,
    "mas": 6450,
    "zed</w>": 6451,
    "expresses</w>": 6452,
    "you!</w>": 6453,
    "2020": 6454,
    "”.</w>": 6455,
    "astr": 6456,
    "set.</w>": 6457,
    "end.</w>": 6458,
    "Mil": 6459,
    "Microsoft</w>": 6460,
    "cub": 6461,
    "spl": 6462,
    "High": 6463,
    "promis": 6464,
    "final</w>": 6465,
    "130.</w>": 6466,
    "Jane</w>": 6467,
    "involved</w>": 6468,
    "simp": 6469,
    "[Your</w>": 6470,
    "speaking</w>": 6471,
    "conversations</w>": 6472,
    "electrical</w>": 6473,
    "academ": 6474,
    "rolling</w>": 6475,
    "uff": 6476,
    "commerce</w>": 6477,
    "learns</w>": 6478,
    "presents</w>": 6479,
    "Heat</w>": 6480,
    "sunlight</w>": 6481,
    "Health</w>": 6482,
    "55.</w>": 6483,
    "exten": 6484,
    "goes</w>": 6485,
    "warming.</w>": 6486,
    "State</w>": 6487,
    "if": 6488,
    "thing.</w>": 6489,
    "ide,</w>": 6490,
    "effectiven": 6491,
    "moral</w>": 6492,
    "year-": 6493,
    "together,</w>": 6494,
    "Rearrange</w>": 6495,
    "Cont": 6496,
    "binary</w>": 6497,
    "tering</w>": 6498,
    "nuclear</w>": 6499,
    "push": 6500,
    "enn": 6501,
    "tics,</w>": 6502,
    "Processing</w>": 6503,
    "ded,</w>": 6504,
    "Person": 6505,
    "behavior.</w>": 6506,
    "forming</w>": 6507,
    "ina</w>": 6508,
    "bed": 6509,
    "gas": 6510,
    "Econ": 6511,
    "Econom": 6512,
    "true.</w>": 6513,
    "arra": 6514,
    "education.</w>": 6515,
    "manner.</w>": 6516,
    "solutions.</w>": 6517,
    "land.</w>": 6518,
    "(2": 6519,
    "Lit": 6520,
    "diversit": 6521,
    "ical,</w>": 6522,
    "campaigns</w>": 6523,
    "mad": 6524,
    "costs.</w>": 6525,
    "romantic</w>": 6526,
    "Tom": 6527,
    "animals,</w>": 6528,
    "115.</w>": 6529,
    "ries,</w>": 6530,
    "dies</w>": 6531,
    "marine</w>": 6532,
    "scientist</w>": 6533,
    "ization,</w>": 6534,
    "hob": 6535,
    "I'll</w>": 6536,
    "dy</w>": 6537,
    "decision-making</w>": 6538,
    "resist": 6539,
    "alphab": 6540,
    "parameters</w>": 6541,
    "African</w>": 6542,
    "peak</w>": 6543,
    "secret</w>": 6544,
    "foli": 6545,
    "flexibility</w>": 6546,
    "trop": 6547,
    "Text</w>": 6548,
    "fasc": 6549,
    "Sarah</w>": 6550,
    "emotion</w>": 6551,
    "education,</w>": 6552,
    "yi": 6553,
    "passed</w>": 6554,
    "commerc": 6555,
    "science,</w>": 6556,
    "assess</w>": 6557,
    "convenience</w>": 6558,
    "escap": 6559,
    "dragon</w>": 6560,
    "Where</w>": 6561,
    "summarize</w>": 6562,
    "elements.</w>": 6563,
    "history.</w>": 6564,
    "TV</w>": 6565,
    "moving</w>": 6566,
    "identity</w>": 6567,
    "bust": 6568,
    "deforest": 6569,
    "enthusi": 6570,
    "Sa": 6571,
    "completely</w>": 6572,
    "wish": 6573,
    "hood</w>": 6574,
    "cards</w>": 6575,
    "ges</w>": 6576,
    "Air": 6577,
    "schem": 6578,
    "outcomes</w>": 6579,
    "ian</w>": 6580,
    "collaborate</w>": 6581,
    "tive.</w>": 6582,
    "featuring</w>": 6583,
    "works.</w>": 6584,
    "space.</w>": 6585,
    "endang": 6586,
    "je": 6587,
    "house.</w>": 6588,
    "dishes</w>": 6589,
    "thous": 6590,
    "intelligence,</w>": 6591,
    "reusable</w>": 6592,
    "whit": 6593,
    "Rene": 6594,
    "outcomes.</w>": 6595,
    "scenario</w>": 6596,
    "ingu": 6597,
    "map</w>": 6598,
    "craf": 6599,
    "aught</w>": 6600,
    "lasting</w>": 6601,
    "pread</w>": 6602,
    "32</w>": 6603,
    "heavy</w>": 6604,
    "Offer</w>": 6605,
    "care.</w>": 6606,
    "exploration</w>": 6607,
    "minimum</w>": 6608,
    "cle.</w>": 6609,
    "war</w>": 6610,
    "analogy</w>": 6611,
    "huge</w>": 6612,
    "butter,</w>": 6613,
    "combine</w>": 6614,
    "sibilities</w>": 6615,
    "NLP": 6616,
    "place,</w>": 6617,
    "bias</w>": 6618,
    "attribut": 6619,
    "pass</w>": 6620,
    "furnit": 6621,
    "engineer</w>": 6622,
    "mistak": 6623,
    "abul": 6624,
    "occur</w>": 6625,
    "forec": 6626,
    "else:</w>": 6627,
    "air.</w>": 6628,
    "Francis": 6629,
    "encountered</w>": 6630,
    "that's</w>": 6631,
    "Just</w>": 6632,
    "i'": 6633,
    "implemented</w>": 6634,
    "Juli": 6635,
    "equival": 6636,
    "body></w>": 6637,
    "interview</w>": 6638,
    "esting</w>": 6639,
    "advances</w>": 6640,
    "screen</w>": 6641,
    "field.</w>": 6642,
    "single-": 6643,
    "Tor": 6644,
    "money.</w>": 6645,
    "apply</w>": 6646,
    "wrong</w>": 6647,
    "decor": 6648,
    "week</w>": 6649,
    "moon": 6650,
    "holi": 6651,
    "muse": 6652,
    "characterized</w>": 6653,
    "appliances</w>": 6654,
    "fruit</w>": 6655,
    "%.</w>": 6656,
    "ocracy</w>": 6657,
    "b.</w>": 6658,
    "similar": 6659,
    "hes": 6660,
    "symptoms</w>": 6661,
    "Estab": 6662,
    "Artic": 6663,
    "fant": 6664,
    "heat.</w>": 6665,
    "liqu": 6666,
    "creativity</w>": 6667,
    "dynamic</w>": 6668,
    "According</w>": 6669,
    "py": 6670,
    "ang</w>": 6671,
    "oil,</w>": 6672,
    "blue,</w>": 6673,
    "design.</w>": 6674,
    "ists</w>": 6675,
    "outline</w>": 6676,
    "vis": 6677,
    "</td></w>": 6678,
    "mammals</w>": 6679,
    "Top": 6680,
    "healthcare,</w>": 6681,
    "wonderful</w>": 6682,
    "ances.</w>": 6683,
    "cut</w>": 6684,
    "Ultim": 6685,
    "tom</w>": 6686,
    "incorrect</w>": 6687,
    "0-": 6688,
    "processes,</w>": 6689,
    "issue.</w>": 6690,
    "themes</w>": 6691,
    "slo": 6692,
    "conservation</w>": 6693,
    "branch</w>": 6694,
    "Kore": 6695,
    "ks.</w>": 6696,
    "ties.</w>": 6697,
    "civil</w>": 6698,
    "separate</w>": 6699,
    "Their</w>": 6700,
    "formula</w>": 6701,
    "ans.</w>": 6702,
    "appear</w>": 6703,
    "power,</w>": 6704,
    "secure": 6705,
    "Andro": 6706,
    "cep": 6707,
    "dur": 6708,
    "Mag": 6709,
    "lined</w>": 6710,
    "incredibly</w>": 6711,
    "Sent": 6712,
    "Making</w>": 6713,
    "Dep": 6714,
    "well.</w>": 6715,
    "15,</w>": 6716,
    "i.</w>": 6717,
    "emphasizes</w>": 6718,
    "optimization</w>": 6719,
    "history,</w>": 6720,
    "leaving</w>": 6721,
    "repet": 6722,
    "imagin": 6723,
    "flour</w>": 6724,
    "joke</w>": 6725,
    "lighting</w>": 6726,
    "adm": 6727,
    "cleaning</w>": 6728,
    "switch</w>": 6729,
    "avoiding</w>": 6730,
    "speaker</w>": 6731,
    "etary</w>": 6732,
    "bed</w>": 6733,
    "Ital": 6734,
    "managed</w>": 6735,
    "Red</w>": 6736,
    "al:</w>": 6737,
    "ions.</w>": 6738,
    "Chorus:</w>": 6739,
    "guide</w>": 6740,
    "urg": 6741,
    "universe.</w>": 6742,
    "Tex": 6743,
    "advoc": 6744,
    "index</w>": 6745,
    "interested</w>": 6746,
    "194": 6747,
    "home": 6748,
    "rote</w>": 6749,
    "encouraging</w>": 6750,
    "King</w>": 6751,
    "etting</w>": 6752,
    "typical</w>": 6753,
    "haiku</w>": 6754,
    "classified</w>": 6755,
    "change,</w>": 6756,
    "afterno": 6757,
    "child</w>": 6758,
    "(x": 6759,
    "decreased</w>": 6760,
    "Formul": 6761,
    "do.</w>": 6762,
    "movie.</w>": 6763,
    "itud": 6764,
    "lever": 6765,
    "bab": 6766,
    "(arr": 6767,
    "friendship</w>": 6768,
    "civiliz": 6769,
    "ted.</w>": 6770,
    "broken</w>": 6771,
    "Renew": 6772,
    "thus</w>": 6773,
    "questions,</w>": 6774,
    "Keep</w>": 6775,
    "responsibility</w>": 6776,
    "wiz": 6777,
    "Little</w>": 6778,
    "primar": 6779,
    "simpl": 6780,
    "sni": 6781,
    "Mor": 6782,
    "Tom</w>": 6783,
    "love,</w>": 6784,
    "enhance</w>": 6785,
    "adventure.</w>": 6786,
    "Tit": 6787,
    "pre-": 6788,
    "promoting</w>": 6789,
    "carry</w>": 6790,
    "send</w>": 6791,
    "cases</w>": 6792,
    "<no": 6793,
    "divisors</w>": 6794,
    "soli": 6795,
    "tation</w>": 6796,
    "connections</w>": 6797,
    "distribu": 6798,
    "fashion</w>": 6799,
    "presid": 6800,
    "exchange</w>": 6801,
    "wild</w>": 6802,
    "5)</w>": 6803,
    "planet.</w>": 6804,
    "veri": 6805,
    "Ultimately,</w>": 6806,
    "infl": 6807,
    "itig": 6808,
    "family,</w>": 6809,
    "Mi": 6810,
    "compl": 6811,
    "proverb</w>": 6812,
    "processes.</w>": 6813,
    "stic</w>": 6814,
    "release</w>": 6815,
    "vul": 6816,
    "decide</w>": 6817,
    "tense.</w>": 6818,
    "continues</w>": 6819,
    "serving</w>": 6820,
    "cus": 6821,
    "im</w>": 6822,
    "worth</w>": 6823,
    "inspired</w>": 6824,
    "Scienti": 6825,
    "Consi": 6826,
    "Character</w>": 6827,
    "ich": 6828,
    "analysis.</w>": 6829,
    "powder,</w>": 6830,
    "xur": 6831,
    "Orang": 6832,
    "labor</w>": 6833,
    "birthday</w>": 6834,
    "\"A</w>": 6835,
    "i'm</w>": 6836,
    "block</w>": 6837,
    "natur": 6838,
    "drou": 6839,
    "micro": 6840,
    "how": 6841,
    "head></w>": 6842,
    "challenging</w>": 6843,
    "software,</w>": 6844,
    "intr": 6845,
    "moves</w>": 6846,
    "aps</w>": 6847,
    "gs</w>": 6848,
    "ball,</w>": 6849,
    "Eff": 6850,
    "productive</w>": 6851,
    "saying</w>": 6852,
    "Digital</w>": 6853,
    "skillet</w>": 6854,
    "5:</w>": 6855,
    "death</w>": 6856,
    "CSS</w>": 6857,
    "ump</w>": 6858,
    "schedule</w>": 6859,
    "passion</w>": 6860,
    "flower</w>": 6861,
    "Face": 6862,
    "communication.</w>": 6863,
    "abstract</w>": 6864,
    "Word": 6865,
    "justice</w>": 6866,
    "ace,</w>": 6867,
    "Reduce</w>": 6868,
    "wearing</w>": 6869,
    "ality.</w>": 6870,
    "Preheat</w>": 6871,
    "Mexico</w>": 6872,
    "listen</w>": 6873,
    "visible</w>": 6874,
    "rapid</w>": 6875,
    "rein": 6876,
    "June</w>": 6877,
    "breeze</w>": 6878,
    "benefits,</w>": 6879,
    "letters</w>": 6880,
    "trees,</w>": 6881,
    "secrets</w>": 6882,
    "Vol": 6883,
    "apping</w>": 6884,
    "properties</w>": 6885,
    "lou": 6886,
    "e\".</w>": 6887,
    "trees.</w>": 6888,
    "names</w>": 6889,
    "turning</w>": 6890,
    "Loc": 6891,
    "stumbled</w>": 6892,
    "pros</w>": 6893,
    "ope</w>": 6894,
    "Enjo": 6895,
    "discover</w>": 6896,
    "subst": 6897,
    "update</w>": 6898,
    "need.</w>": 6899,
    "discusses</w>": 6900,
    "rule</w>": 6901,
    "another.</w>": 6902,
    "chopped</w>": 6903,
    "Smith": 6904,
    "sunny</w>": 6905,
    "navigation</w>": 6906,
    "ember</w>": 6907,
    "i-": 6908,
    "Fibonacc": 6909,
    "flexible</w>": 6910,
    "code,</w>": 6911,
    "security,</w>": 6912,
    "Along</w>": 6913,
    "audio</w>": 6914,
    "properly</w>": 6915,
    "familiar</w>": 6916,
    "materials.</w>": 6917,
    "reward</w>": 6918,
    "Complete</w>": 6919,
    "knight</w>": 6920,
    "Celsius</w>": 6921,
    "Willi": 6922,
    "journey,</w>": 6923,
    "regression</w>": 6924,
    "despite</w>": 6925,
    "tablespoon</w>": 6926,
    "activities,</w>": 6927,
    "gender</w>": 6928,
    "U.S.</w>": 6929,
    "visiting</w>": 6930,
    "125.</w>": 6931,
    "reviews</w>": 6932,
    "boy</w>": 6933,
    "C,</w>": 6934,
    "them,</w>": 6935,
    "tually</w>": 6936,
    "Humans</w>": 6937,
    "produced</w>": 6938,
    "bot": 6939,
    "Photo": 6940,
    "region</w>": 6941,
    "forcement</w>": 6942,
    "descriptive</w>": 6943,
    "lef": 6944,
    "bacter": 6945,
    "[i]</w>": 6946,
    "[j": 6947,
    "thor": 6948,
    "opportunities.</w>": 6949,
    "monitoring</w>": 6950,
    "storing</w>": 6951,
    "plant-based</w>": 6952,
    "tech</w>": 6953,
    "ject:</w>": 6954,
    "Having</w>": 6955,
    "ills</w>": 6956,
    "gest": 6957,
    "primarily</w>": 6958,
    "ances,</w>": 6959,
    "----------------": 6960,
    "gift</w>": 6961,
    "climat": 6962,
    "cognitive</w>": 6963,
    "aper</w>": 6964,
    "willing</w>": 6965,
    "dimension": 6966,
    "evening</w>": 6967,
    "Exercise</w>": 6968,
    "records</w>": 6969,
    "efficiency,</w>": 6970,
    "stress.</w>": 6971,
    "Jan": 6972,
    "21</w>": 6973,
    "times,</w>": 6974,
    "rase</w>": 6975,
    "powder</w>": 6976,
    "True</w>": 6977,
    "flour,</w>": 6978,
    "agg": 6979,
    "os": 6980,
    "Indian</w>": 6981,
    "kitchen</w>": 6982,
    "corresponding</w>": 6983,
    "old": 6984,
    "foundation</w>": 6985,
    "circum": 6986,
    "atten": 6987,
    "apologize</w>": 6988,
    "indicate</w>": 6989,
    "remains</w>": 6990,
    "benefits.</w>": 6991,
    "DNA</w>": 6992,
    "plate</w>": 6993,
    "formed</w>": 6994,
    "fine</w>": 6995,
    "shorter</w>": 6996,
    "features,</w>": 6997,
    "States,</w>": 6998,
    "winter</w>": 6999,
    "treas": 7000,
    "Wel": 7001,
    "Neural</w>": 7002,
    "Re-": 7003,
    "g,</w>": 7004,
    "pages</w>": 7005,
    "zes</w>": 7006,
    "cons</w>": 7007,
    "Att": 7008,
    "spelling</w>": 7009,
    "output.</w>": 7010,
    "spin": 7011,
    "conf": 7012,
    "Del": 7013,
    "holds</w>": 7014,
    "summarizing</w>": 7015,
    "captiv": 7016,
    "efficiency.</w>": 7017,
    "8,": 7018,
    "Canada</w>": 7019,
    "helped</w>": 7020,
    "decreas": 7021,
    "Compan": 7022,
    "1000</w>": 7023,
    "ely.</w>": 7024,
    "First</w>": 7025,
    "NLP</w>": 7026,
    "0:</w>": 7027,
    "eg": 7028,
    "hosp": 7029,
    "Renewable</w>": 7030,
    "shift</w>": 7031,
    "aim</w>": 7032,
    "won</w>": 7033,
    "smell</w>": 7034,
    "comparing</w>": 7035,
    "preced": 7036,
    "Hou": 7037,
    "inform</w>": 7038,
    "comparison</w>": 7039,
    "(n": 7040,
    "ideas,</w>": 7041,
    "vulner": 7042,
    "Engine": 7043,
    "asking</w>": 7044,
    "defined</w>": 7045,
    "essor</w>": 7046,
    "pressu": 7047,
    "store,</w>": 7048,
    "Stre": 7049,
    "format</w>": 7050,
    "consci": 7051,
    "shown</w>": 7052,
    "11,</w>": 7053,
    "ence:</w>": 7054,
    "couldn't</w>": 7055,
    "reached</w>": 7056,
    "correct": 7057,
    "icate</w>": 7058,
    "lest": 7059,
    "occurs</w>": 7060,
    "didn't</w>": 7061,
    "false</w>": 7062,
    "pollution,</w>": 7063,
    "reflect</w>": 7064,
    "quite</w>": 7065,
    "numerical</w>": 7066,
    "won't</w>": 7067,
    "regard": 7068,
    "newfound</w>": 7069,
    "ough": 7070,
    "internet.</w>": 7071,
    "medium": 7072,
    "leader": 7073,
    "interpret</w>": 7074,
    "vacc": 7075,
    "cred": 7076,
    "candidat": 7077,
    "streaming</w>": 7078,
    "poly": 7079,
    "ride</w>": 7080,
    "chann": 7081,
    "tives.</w>": 7082,
    "accord": 7083,
    "Phys": 7084,
    "concepts</w>": 7085,
    "<td": 7086,
    "<td>": 7087,
    "fascin": 7088,
    "processed</w>": 7089,
    "noticed</w>": 7090,
    "'ll</w>": 7091,
    "America</w>": 7092,
    "condition</w>": 7093,
    "camping</w>": 7094,
    "landscape</w>": 7095,
    "come.</w>": 7096,
    "applied</w>": 7097,
    "intense</w>": 7098,
    "iki": 7099,
    "producing</w>": 7100,
    "Enjoy!</w>": 7101,
    "milk,</w>": 7102,
    "home,</w>": 7103,
    "regardless</w>": 7104,
    "rates</w>": 7105,
    "face,</w>": 7106,
    "harm": 7107,
    "capabilities</w>": 7108,
    "Lat": 7109,
    "half</w>": 7110,
    "^2</w>": 7111,
    "ality,</w>": 7112,
    "moments</w>": 7113,
    "Commun": 7114,
    "banking</w>": 7115,
    "Mer": 7116,
    "depic": 7117,
    "touri": 7118,
    "therap": 7119,
    "Insert</w>": 7120,
    "unit</w>": 7121,
    "planets</w>": 7122,
    "ney</w>": 7123,
    "correct.</w>": 7124,
    "internal</w>": 7125,
    "Don't</w>": 7126,
    "Differen": 7127,
    "produces</w>": 7128,
    "thought": 7129,
    "enever</w>": 7130,
    "items,</w>": 7131,
    "m:</w>": 7132,
    "appreciation</w>": 7133,
    "2x</w>": 7134,
    "Union</w>": 7135,
    "kingdom": 7136,
    "continued</w>": 7137,
    "hands</w>": 7138,
    "right": 7139,
    "Impact</w>": 7140,
    "an's</w>": 7141,
    "pursue</w>": 7142,
    "deser": 7143,
    "for.</w>": 7144,
    "ady</w>": 7145,
    "images,</w>": 7146,
    "Mic": 7147,
    "believed</w>": 7148,
    "paralle": 7149,
    "Mid": 7150,
    "iconic</w>": 7151,
    "bell</w>": 7152,
    "Paci": 7153,
    "GD": 7154,
    "String</w>": 7155,
    "transportation,</w>": 7156,
    "colon": 7157,
    "expressing</w>": 7158,
    "enting</w>": 7159,
    "today?</w>": 7160,
    "Spanish": 7161,
    "ens.</w>": 7162,
    "yogur": 7163,
    "ensu": 7164,
    "Cats</w>": 7165,
    "f-": 7166,
    "born</w>": 7167,
    "garden</w>": 7168,
    "dense</w>": 7169,
    "c.": 7170,
    "synonym</w>": 7171,
    "desc": 7172,
    "Most</w>": 7173,
    "expressed</w>": 7174,
    "visited</w>": 7175,
    "tors</w>": 7176,
    "ice:</w>": 7177,
    "Dri": 7178,
    "win</w>": 7179,
    "infec": 7180,
    "issues.</w>": 7181,
    "quali": 7182,
    "efforts</w>": 7183,
    "materials,</w>": 7184,
    "akes": 7185,
    "wrote</w>": 7186,
    "shapes</w>": 7187,
    "strang": 7188,
    "Phi": 7189,
    "18.</w>": 7190,
    "memories</w>": 7191,
    "Writ": 7192,
    "ship,</w>": 7193,
    "False</w>": 7194,
    "shif": 7195,
    "sight</w>": 7196,
    "Sur": 7197,
    "yiel": 7198,
    "please</w>": 7199,
    "visualization</w>": 7200,
    "graph</w>": 7201,
    "ines,</w>": 7202,
    "Gal": 7203,
    "Africa</w>": 7204,
    "mitig": 7205,
    "covered</w>": 7206,
    "likes</w>": 7207,
    "reaction</w>": 7208,
    "hash": 7209,
    "Of</w>": 7210,
    "Look</w>": 7211,
    "Fol": 7212,
    "lands</w>": 7213,
    "II.</w>": 7214,
    "toc": 7215,
    "representation</w>": 7216,
    "recommendations</w>": 7217,
    "categories</w>": 7218,
    "unnecessary</w>": 7219,
    "random": 7220,
    "tr></w>": 7221,
    "grand": 7222,
    "pping</w>": 7223,
    "colors,</w>": 7224,
    "bridge</w>": 7225,
    "television</w>": 7226,
    "adop": 7227,
    "diabet": 7228,
    "collected</w>": 7229,
    "wind,</w>": 7230,
    "solution.</w>": 7231,
    "haz": 7232,
    "Health": 7233,
    "brows": 7234,
    "ies:</w>": 7235,
    "Civil</w>": 7236,
    "frequent</w>": 7237,
    "Search</w>": 7238,
    "healthcare.</w>": 7239,
    "habits</w>": 7240,
    "ast,</w>": 7241,
    "Europe</w>": 7242,
    "statement:</w>": 7243,
    "ok": 7244,
    "strawber": 7245,
    "vehicle</w>": 7246,
    "implement</w>": 7247,
    "journey.</w>": 7248,
    "Carro": 7249,
    "fulness</w>": 7250,
    "tel</w>": 7251,
    "sen</w>": 7252,
    "emphasize</w>": 7253,
    "140.</w>": 7254,
    "death": 7255,
    "acti": 7256,
    "reflects</w>": 7257,
    "Pari": 7258,
    "ines.</w>": 7259,
    "happin": 7260,
    "inkle</w>": 7261,
    "Human</w>": 7262,
    "effectivel": 7263,
    "eable</w>": 7264,
    "sud": 7265,
    "days.</w>": 7266,
    "loop": 7267,
    "eat": 7268,
    "frequency</w>": 7269,
    "ve-": 7270,
    "central</w>": 7271,
    "ake,</w>": 7272,
    "program.</w>": 7273,
    "median</w>": 7274,
    "water": 7275,
    "65.</w>": 7276,
    "ing-": 7277,
    "subject": 7278,
    "cheese,</w>": 7279,
    "growth,</w>": 7280,
    "of-": 7281,
    "sorry</w>": 7282,
    "menu</w>": 7283,
    "afra": 7284,
    "tag</w>": 7285,
    "waste.</w>": 7286,
    "real-time</w>": 7287,
    "CP": 7288,
    "Wal": 7289,
    "goktu": 7290,
    "wall</w>": 7291,
    "wit": 7292,
    "Implement</w>": 7293,
    "covering</w>": 7294,
    "tomorrow": 7295,
    "fitness</w>": 7296,
    "severe</w>": 7297,
    "demonstrate</w>": 7298,
    "Arc": 7299,
    "choices</w>": 7300,
    "luxur": 7301,
    "fix</w>": 7302,
    "pick</w>": 7303,
    "400</w>": 7304,
    "cere": 7305,
    "walls</w>": 7306,
    "doors</w>": 7307,
    "verb.</w>": 7308,
    "customer's</w>": 7309,
    "completing</w>": 7310,
    "mac": 7311,
    "gif": 7312,
    "stim": 7313,
    "ety,</w>": 7314,
    "asy</w>": 7315,
    "predat": 7316,
    "proposed</w>": 7317,
    "tut": 7318,
    "journ": 7319,
    "month</w>": 7320,
    "immune</w>": 7321,
    "Alex": 7322,
    "e)</w>": 7323,
    "invention</w>": 7324,
    "Mari": 7325,
    "Spanish</w>": 7326,
    "I've</w>": 7327,
    "oke</w>": 7328,
    "recur": 7329,
    "warmth</w>": 7330,
    "motivate</w>": 7331,
    "ently,</w>": 7332,
    "side,</w>": 7333,
    "conditions.</w>": 7334,
    "Grou": 7335,
    "Mis": 7336,
    "characters.</w>": 7337,
    "onion,</w>": 7338,
    "coordin": 7339,
    "insight</w>": 7340,
    "ler</w>": 7341,
    "erp": 7342,
    "City.</w>": 7343,
    "breakfast</w>": 7344,
    "savings</w>": 7345,
    "overview</w>": 7346,
    "music,</w>": 7347,
    "actions,</w>": 7348,
    "rever": 7349,
    "voice.</w>": 7350,
    "AN": 7351,
    "again.</w>": 7352,
    "valid": 7353,
    "ved.</w>": 7354,
    "letter": 7355,
    "Det": 7356,
    "satisfaction.</w>": 7357,
    "outcome</w>": 7358,
    "strateg": 7359,
    "technological</w>": 7360,
    "aked</w>": 7361,
    "emissions.</w>": 7362,
    "affected</w>": 7363,
    "focusing</w>": 7364,
    "skin</w>": 7365,
    "Adv": 7366,
    "equivalent</w>": 7367,
    "vector</w>": 7368,
    "go.</w>": 7369,
    "Under": 7370,
    "aphrase</w>": 7371,
    "slices</w>": 7372,
    "Paris</w>": 7373,
    "ority</w>": 7374,
    "wish</w>": 7375,
    "y\".</w>": 7376,
    "Catcher</w>": 7377,
    "etc.</w>": 7378,
    "questions.</w>": 7379,
    "disadvantages</w>": 7380,
    "public": 7381,
    "round</w>": 7382,
    "May</w>": 7383,
    "14.</w>": 7384,
    "double</w>": 7385,
    "process,</w>": 7386,
    "antic</w>": 7387,
    "cultures</w>": 7388,
    "raft</w>": 7389,
    "ships</w>": 7390,
    "Retur": 7391,
    "businesses.</w>": 7392,
    "aroun": 7393,
    "Rel": 7394,
    "rapidly</w>": 7395,
    "very.</w>": 7396,
    "guar": 7397,
    "administr": 7398,
    "tive,</w>": 7399,
    "sensitive</w>": 7400,
    "with?</w>": 7401,
    "Ano": 7402,
    "workers</w>": 7403,
    "ah,</w>": 7404,
    "urban</w>": 7405,
    "physics</w>": 7406,
    "value.</w>": 7407,
    "forest,</w>": 7408,
    "imate</w>": 7409,
    "elephant</w>": 7410,
    "choo": 7411,
    "Increase</w>": 7412,
    "funny</w>": 7413,
    "(NLP": 7414,
    "ino": 7415,
    "Everyone</w>": 7416,
    "path": 7417,
    "unte": 7418,
    "A,</w>": 7419,
    "catch</w>": 7420,
    "picnic</w>": 7421,
    "frustr": 7422,
    "signs</w>": 7423,
    "rist": 7424,
    "robotic</w>": 7425,
    "decl": 7426,
    "bold</w>": 7427,
    "antony": 7428,
    "Advent": 7429,
    "conserve</w>": 7430,
    "forget": 7431,
    "imal</w>": 7432,
    "decisions,</w>": 7433,
    "page.</w>": 7434,
    "mund": 7435,
    "Her": 7436,
    "goti": 7437,
    "Chi": 7438,
    "transactions</w>": 7439,
    "banana</w>": 7440,
    "yester": 7441,
    "ass,</w>": 7442,
    "poor</w>": 7443,
    "Australia</w>": 7444,
    "over,</w>": 7445,
    "spoken</w>": 7446,
    "users.</w>": 7447,
    "productivity.</w>": 7448,
    "Pop": 7449,
    "academic</w>": 7450,
    "performance,</w>": 7451,
    "am,</w>": 7452,
    "akespe": 7453,
    "visuals</w>": 7454,
    "UR": 7455,
    "glob": 7456,
    "ana</w>": 7457,
    "fed": 7458,
    "gathering</w>": 7459,
    "bread</w>": 7460,
    "wealth</w>": 7461,
    "preci": 7462,
    "optimizing</w>": 7463,
    "ublic</w>": 7464,
    "brought</w>": 7465,
    "edit</w>": 7466,
    "previous</w>": 7467,
    "ingredients.</w>": 7468,
    "16.</w>": 7469,
    "Win": 7470,
    "endangered</w>": 7471,
    "onna</w>": 7472,
    "dealing</w>": 7473,
    "novel": 7474,
    "election</w>": 7475,
    "g/": 7476,
    "again</w>": 7477,
    "thi": 7478,
    "revenue</w>": 7479,
    "inspiring</w>": 7480,
    "structures</w>": 7481,
    "gravity</w>": 7482,
    "illumin": 7483,
    "media,</w>": 7484,
    "atmosphere,</w>": 7485,
    "revolutionize</w>": 7486,
    "electro": 7487,
    "molecules</w>": 7488,
    "h1": 7489,
    "cycl": 7490,
    "Pres": 7491,
    "stitution</w>": 7492,
    "J.": 7493,
    "tested</w>": 7494,
    "species.</w>": 7495,
    "depart": 7496,
    "Put</w>": 7497,
    "variables</w>": 7498,
    "Science</w>": 7499,
    "colorful</w>": 7500,
    "trade</w>": 7501,
    "imper": 7502,
    "designing</w>": 7503,
    "seren": 7504,
    "Pi": 7505,
    "watched</w>": 7506,
    "ext,</w>": 7507,
    "ray": 7508,
    "tok": 7509,
    "alien</w>": 7510,
    "presented</w>": 7511,
    "father</w>": 7512,
    "Tu": 7513,
    "authorized</w>": 7514,
    "direction</w>": 7515,
    "ner,</w>": 7516,
    "Input</w>": 7517,
    "swimm": 7518,
    "entrepreneur": 7519,
    "Another</w>": 7520,
    "deal</w>": 7521,
    "150.</w>": 7522,
    "answers</w>": 7523,
    "seek</w>": 7524,
    "own.</w>": 7525,
    "fici": 7526,
    "powers</w>": 7527,
    "percent": 7528,
    "rock</w>": 7529,
    "Fo": 7530,
    "Coo": 7531,
    "Mount</w>": 7532,
    "task,</w>": 7533,
    "ado</w>": 7534,
    "Sel": 7535,
    "Pacific</w>": 7536,
    "ud</w>": 7537,
    "Formulate</w>": 7538,
    "Bake</w>": 7539,
    "important.</w>": 7540,
    "calm</w>": 7541,
    "gin": 7542,
    "es;</w>": 7543,
    "tropical</w>": 7544,
    "segment": 7545,
    "restaurant.</w>": 7546,
    "fiction</w>": 7547,
    "Visit</w>": 7548,
    "ce,</w>": 7549,
    "rural</w>": 7550,
    "businesses,</w>": 7551,
    "AI-driven</w>": 7552,
    "ator": 7553,
    "spread": 7554,
    "London</w>": 7555,
    "forget</w>": 7556,
    "stepped</w>": 7557,
    "dedicated</w>": 7558,
    "bow</w>": 7559,
    "Even</w>": 7560,
    "honey</w>": 7561,
    "sist": 7562,
    "ophist": 7563,
    "roles</w>": 7564,
    "ders,</w>": 7565,
    "ABC</w>": 7566,
    "poem.</w>": 7567,
    "individual": 7568,
    "hund": 7569,
    "apple,</w>": 7570,
    "rust": 7571,
    "een</w>": 7572,
    "adapt</w>": 7573,
    "replacing</w>": 7574,
    "AI-powered</w>": 7575,
    "book,</w>": 7576,
    "son": 7577,
    "Mark": 7578,
    "vanilla</w>": 7579,
    "chip": 7580,
    "Veget": 7581,
    "spot</w>": 7582,
    "data-": 7583,
    "training.</w>": 7584,
    "gone</w>": 7585,
    "ideas.</w>": 7586,
    "arrived</w>": 7587,
    "Quant": 7588,
    "location.</w>": 7589,
    "Linu": 7590,
    "Bud": 7591,
    "self.": 7592,
    "bit": 7593,
    "actively</w>": 7594,
    "relax</w>": 7595,
    "adventure": 7596,
    "acts</w>": 7597,
    "denly,</w>": 7598,
    "grown</w>": 7599,
    "fati": 7600,
    "plan.</w>": 7601,
    "stars,</w>": 7602,
    "Ni": 7603,
    "Experi": 7604,
    "Star": 7605,
    "Twit": 7606,
    "does": 7607,
    "this,</w>": 7608,
    "camera</w>": 7609,
    "Introduction</w>": 7610,
    "II</w>": 7611,
    "12,</w>": 7612,
    "197": 7613,
    "whose</w>": 7614,
    "magnetic</w>": 7615,
    "coronavirus</w>": 7616,
    "survive</w>": 7617,
    "singing</w>": 7618,
    "Paraphrase</w>": 7619,
    "you'll</w>": 7620,
    "candidate</w>": 7621,
    "el,</w>": 7622,
    "le?</w>": 7623,
    "recognizing</w>": 7624,
    "you,</w>": 7625,
    "authentication</w>": 7626,
    "costs,</w>": 7627,
    "speech.</w>": 7628,
    "efficient,</w>": 7629,
    "emissions,</w>": 7630,
    "vivi": 7631,
    "Roc": 7632,
    "community.</w>": 7633,
    "tory</w>": 7634,
    "declar": 7635,
    "stimul": 7636,
    "length": 7637,
    "research": 7638,
    "selecting</w>": 7639,
    "workplace.</w>": 7640,
    "Fro": 7641,
    "accuracy.</w>": 7642,
    "contrac": 7643,
    "Conn": 7644,
    "the-": 7645,
    "resource</w>": 7646,
    "underlying</w>": 7647,
    "transportation.</w>": 7648,
    "Play": 7649,
    "Shakespe": 7650,
    "even.</w>": 7651,
    "stunning</w>": 7652,
    "eight</w>": 7653,
    "protoc": 7654,
    "swim": 7655,
    "figur": 7656,
    "Reword</w>": 7657,
    "infin": 7658,
    "assig": 7659,
    "Transform</w>": 7660,
    "(num": 7661,
    "class.</w>": 7662,
    "e;</w>": 7663,
    "orders</w>": 7664,
    "48</w>": 7665,
    "load</w>": 7666,
    "”,</w>": 7667,
    "week.</w>": 7668,
    "beach.</w>": 7669,
    "winter": 7670,
    "events.</w>": 7671,
    "Intern": 7672,
    "school.</w>": 7673,
    "explanation</w>": 7674,
    "destination</w>": 7675,
    "dog.</w>": 7676,
    "assistants</w>": 7677,
    "strings</w>": 7678,
    "wildlife</w>": 7679,
    "closer</w>": 7680,
    "moved</w>": 7681,
    "el.</w>": 7682,
    "effectiveness</w>": 7683,
    "ballo": 7684,
    "nel</w>": 7685,
    "lining</w>": 7686,
    "tab": 7687,
    "Hol": 7688,
    "devices,</w>": 7689,
    "shining</w>": 7690,
    "calend": 7691,
    "tranqu": 7692,
    "it’s</w>": 7693,
    "index": 7694,
    "Customer:</w>": 7695,
    "hosting</w>": 7696,
    "ests</w>": 7697,
    "font</w>": 7698,
    "Bar": 7699,
    "Tri": 7700,
    "explains</w>": 7701,
    "apps</w>": 7702,
    "patterns.</w>": 7703,
    "availability</w>": 7704,
    "diction": 7705,
    "placed</w>": 7706,
    "number,</w>": 7707,
    "Stor": 7708,
    "efficiently</w>": 7709,
    "es\"</w>": 7710,
    "timely</w>": 7711,
    "minute</w>": 7712,
    "10%</w>": 7713,
    "swit": 7714,
    "farm": 7715,
    "Next,</w>": 7716,
    "inger</w>": 7717,
    "hours.</w>": 7718,
    "mindful</w>": 7719,
    "With": 7720,
    "edy</w>": 7721,
    "students.</w>": 7722,
    "Secur": 7723,
    "overcome</w>": 7724,
    "reno": 7725,
    "string.</w>": 7726,
    "ace.</w>": 7727,
    "characters,</w>": 7728,
    "discovers</w>": 7729,
    "parties</w>": 7730,
    "Though</w>": 7731,
    "level.</w>": 7732,
    "hair</w>": 7733,
    "infrastructure</w>": 7734,
    "joy": 7735,
    "self,</w>": 7736,
    "mise</w>": 7737,
    "smartphone</w>": 7738,
    "competition</w>": 7739,
    "quality,</w>": 7740,
    "crime</w>": 7741,
    "bowl</w>": 7742,
    "nesses</w>": 7743,
    "goktug": 7744,
    "gradu": 7745,
    "fictional</w>": 7746,
    "object.</w>": 7747,
    "three-": 7748,
    "options.</w>": 7749,
    "Einste": 7750,
    "most": 7751,
    "er?</w>": 7752,
    "Pour</w>": 7753,
    "ously.</w>": 7754,
    "Bec": 7755,
    "affordable</w>": 7756,
    "clearly</w>": 7757,
    "predicting</w>": 7758,
    "finished</w>": 7759,
    "ago.</w>": 7760,
    "Android</w>": 7761,
    "RAM</w>": 7762,
    "received</w>": 7763,
    "position.</w>": 7764,
    "goodby": 7765,
    "renown": 7766,
    "renowned</w>": 7767,
    "egg</w>": 7768,
    "C)</w>": 7769,
    "hero</w>": 7770,
    "mundane</w>": 7771,
    "responses</w>": 7772,
    "deeper</w>": 7773,
    "Port": 7774,
    "terri": 7775,
    "insur": 7776,
    "Foo": 7777,
    "sophist": 7778,
    "maintenance</w>": 7779,
    "99": 7780,
    "year-old</w>": 7781,
    "Name],</w>": 7782,
    "prefer</w>": 7783,
    "regulate</w>": 7784,
    "Number</w>": 7785,
    "production.</w>": 7786,
    "ones,</w>": 7787,
    "road": 7788,
    "isol": 7789,
    "inputs</w>": 7790,
    "nature,</w>": 7791,
    "resolution</w>": 7792,
    "Mad": 7793,
    "bus</w>": 7794,
    "stick</w>": 7795,
    "decision-mak": 7796,
    "Earth,</w>": 7797,
    "Welcome</w>": 7798,
    "bottom</w>": 7799,
    "Cy": 7800,
    "representing</w>": 7801,
    "V.</w>": 7802,
    "publish": 7803,
    "devast": 7804,
    ".or": 7805,
    "Prep": 7806,
    "volcan": 7807,
    "exist</w>": 7808,
    "abund": 7809,
    "array.</w>": 7810,
    "darkness</w>": 7811,
    "town.</w>": 7812,
    "battle</w>": 7813,
    "art.</w>": 7814,
    "\">": 7815,
    "mic</w>": 7816,
    "cm": 7817,
    "refer</w>": 7818,
    "umn</w>": 7819,
    "Greek</w>": 7820,
    "intended</w>": 7821,
    "wrong": 7822,
    "pot</w>": 7823,
    "marketing,</w>": 7824,
    "Av": 7825,
    "gaming</w>": 7826,
    "organizing</w>": 7827,
    "ensi": 7828,
    "by-": 7829,
    "fication,</w>": 7830,
    "ergy</w>": 7831,
    "stronger</w>": 7832,
    "Remove</w>": 7833,
    "loyal</w>": 7834,
    "matri": 7835,
    "Lab": 7836,
    "included</w>": 7837,
    "bel</w>": 7838,
    "erti": 7839,
    "inventor.</w>": 7840,
    "fem": 7841,
    "accept</w>": 7842,
    "e-commerce</w>": 7843,
    "integers</w>": 7844,
    "idiom</w>": 7845,
    "Practice</w>": 7846,
    "expand</w>": 7847,
    "interests</w>": 7848,
    "necessary.</w>": 7849,
    "processing.</w>": 7850,
    "Love</w>": 7851,
    "calculated</w>": 7852,
    "glass</w>": 7853,
    "transfer</w>": 7854,
    "ior</w>": 7855,
    "\"></w>": 7856,
    "vocabul": 7857,
    "expenses</w>": 7858,
    "wave</w>": 7859,
    "phenomenon</w>": 7860,
    "phrase.</w>": 7861,
    "omin": 7862,
    "fruits,</w>": 7863,
    "Try</w>": 7864,
    "legs</w>": 7865,
    "melting</w>": 7866,
    "visitors</w>": 7867,
    "Cro": 7868,
    "threat": 7869,
    "returned</w>": 7870,
    "datasets</w>": 7871,
    "targeted</w>": 7872,
    "seven</w>": 7873,
    "GB</w>": 7874,
    "continuous</w>": 7875,
    "neurons</w>": 7876,
    "revolutionized</w>": 7877,
    "Virtual</w>": 7878,
    "story": 7879,
    "(I": 7880,
    "happen</w>": 7881,
    "teach</w>": 7882,
    "model,</w>": 7883,
    "rose</w>": 7884,
    "uck": 7885,
    "thick</w>": 7886,
    "rot": 7887,
    "Prof": 7888,
    "treatments</w>": 7889,
    "collecting</w>": 7890,
    "suspicious</w>": 7891,
    "Business</w>": 7892,
    "business,</w>": 7893,
    "principle</w>": 7894,
    "Moon</w>": 7895,
    "She": 7896,
    "B)</w>": 7897,
    "tells</w>": 7898,
    "ears</w>": 7899,
    "ted,</w>": 7900,
    "trend</w>": 7901,
    "m/": 7902,
    "ayed</w>": 7903,
    "Optim": 7904,
    "opportunities,</w>": 7905,
    "was": 7906,
    "ams</w>": 7907,
    "[]</w>": 7908,
    "Establish</w>": 7909,
    "asting</w>": 7910,
    "Exploring</w>": 7911,
    "nois": 7912,
    "Sn": 7913,
    "p,</w>": 7914,
    "crash": 7915,
    "Met": 7916,
    "repti": 7917,
    "24": 7918,
    "shopp": 7919,
    "ground": 7920,
    "static</w>": 7921,
    "Spr": 7922,
    "scrat": 7923,
    "earth": 7924,
    "pepper,</w>": 7925,
    "figures</w>": 7926,
    "gravit": 7927,
    "decision.</w>": 7928,
    "absol": 7929,
    "Mamm": 7930,
    "lin</w>": 7931,
    "position": 7932,
    "Propose</w>": 7933,
    "bling</w>": 7934,
    "°C</w>": 7935,
    "ubl": 7936,
    "solved</w>": 7937,
    "drast": 7938,
    "methods.</w>": 7939,
    "views</w>": 7940,
    "sunset</w>": 7941,
    "skill</w>": 7942,
    "capacity</w>": 7943,
    "round": 7944,
    "retail</w>": 7945,
    "size,</w>": 7946,
    "categories:</w>": 7947,
    "formation</w>": 7948,
    "arm</w>": 7949,
    "pizza</w>": 7950,
    "iv": 7951,
    "links</w>": 7952,
    "Sch": 7953,
    "argu": 7954,
    "sharp</w>": 7955,
    "communities</w>": 7956,
    "Lim": 7957,
    "stress,</w>": 7958,
    "character.</w>": 7959,
    "stir</w>": 7960,
    "colleagu": 7961,
    "tics.</w>": 7962,
    "afraid</w>": 7963,
    "135.</w>": 7964,
    "areas.</w>": 7965,
    "turns</w>": 7966,
    "ils</w>": 7967,
    "ales</w>": 7968,
    "Ability</w>": 7969,
    "r.</w>": 7970,
    "go,</w>": 7971,
    "Satur": 7972,
    "century.</w>": 7973,
    "foster</w>": 7974,
    "iri": 7975,
    "immigr": 7976,
    "healthier</w>": 7977,
    "Group</w>": 7978,
    "River</w>": 7979,
    "brush": 7980,
    "party.</w>": 7981,
    "explic": 7982,
    "quar": 7983,
    "bic": 7984,
    "punctuation</w>": 7985,
    "later</w>": 7986,
    "syntax</w>": 7987,
    "quest</w>": 7988,
    "whenever</w>": 7989,
    "human-": 7990,
    "\"?</w>": 7991,
    "destruction</w>": 7992,
    "ry.</w>": 7993,
    "billi": 7994,
    "garden.</w>": 7995,
    "som": 7996,
    "y’s</w>": 7997,
    "cast</w>": 7998,
    "negoti": 7999,
    "dance</w>": 8000,
    "80": 8001,
    "uth</w>": 8002,
    "Exp": 8003,
    "More</w>": 8004,
    "management.</w>": 8005,
    "stirring</w>": 8006,
    "sheet</w>": 8007,
    "ile,</w>": 8008,
    "Carbon</w>": 8009,
    "More": 8010,
    "Web": 8011,
    "small,</w>": 8012,
    "sorted</w>": 8013,
    "spam</w>": 8014,
    "basketball</w>": 8015,
    "single-use</w>": 8016,
    "Er": 8017,
    "initiatives</w>": 8018,
    "syl": 8019,
    "progress.</w>": 8020,
    "Environ": 8021,
    "science.</w>": 8022,
    "aer": 8023,
    "scat": 8024,
    "spark": 8025,
    "Busin": 8026,
    "regarding</w>": 8027,
    "accepted</w>": 8028,
    "Pick</w>": 8029,
    "ons.</w>": 8030,
    "dependent</w>": 8031,
    "Prepare</w>": 8032,
    "joy,</w>": 8033,
    "ingredients,</w>": 8034,
    "old.</w>": 8035,
    "constantly</w>": 8036,
    "evil</w>": 8037,
    "website,</w>": 8038,
    "nice</w>": 8039,
    "tori": 8040,
    "Arctic</w>": 8041,
    "asses</w>": 8042,
    "19</w>": 8043,
    "seem</w>": 8044,
    "friger": 8045,
    "bringing</w>": 8046,
    "visually</w>": 8047,
    "Aug": 8048,
    "chronic</w>": 8049,
    "Suddenly,</w>": 8050,
    "embar": 8051,
    "Angeles</w>": 8052,
    "similarities</w>": 8053,
    "exha": 8054,
    "sis.</w>": 8055,
    "crisis</w>": 8056,
    "thousands</w>": 8057,
    "ateful</w>": 8058,
    "transforming</w>": 8059,
    "manufacturing</w>": 8060,
    "knowledge.</w>": 8061,
    "cinnam": 8062,
    "Gl": 8063,
    "transport</w>": 8064,
    "demo": 8065,
    "ology</w>": 8066,
    "w.</w>": 8067,
    "ounds</w>": 8068,
    "you’": 8069,
    "prints</w>": 8070,
    "paragraph.</w>": 8071,
    "Speci": 8072,
    "meals</w>": 8073,
    "ald</w>": 8074,
    "istan</w>": 8075,
    "have.</w>": 8076,
    "all-purpose</w>": 8077,
    "alphabe": 8078,
    "feedback.</w>": 8079,
    "expos": 8080,
    "digest": 8081,
    "gets</w>": 8082,
    "treat</w>": 8083,
    "tic,</w>": 8084,
    "ecosystems</w>": 8085,
    "plane</w>": 8086,
    "traits</w>": 8087,
    "otherwise</w>": 8088,
    "cook": 8089,
    "classroom</w>": 8090,
    "securely</w>": 8091,
    "Fibonacci</w>": 8092,
    "space,</w>": 8093,
    "tall": 8094,
    "Fut": 8095,
    "real-world</w>": 8096,
    "Mem": 8097,
    "L,</w>": 8098,
    "Christ": 8099,
    "advancements</w>": 8100,
    "lunch</w>": 8101,
    "freedom": 8102,
    "love.</w>": 8103,
    "flexibil": 8104,
    "broad": 8105,
    "6,": 8106,
    "time": 8107,
    "sudden": 8108,
    "got": 8109,
    "breez": 8110,
    "national</w>": 8111,
    "arms</w>": 8112,
    "ony</w>": 8113,
    "Dogs</w>": 8114,
    "radius</w>": 8115,
    "cha": 8116,
    "ther,</w>": 8117,
    "passing</w>": 8118,
    "20,</w>": 8119,
    "ating,</w>": 8120,
    "paid</w>": 8121,
    "XY": 8122,
    "Happy</w>": 8123,
    "sorting</w>": 8124,
    "am.</w>": 8125,
    "suited</w>": 8126,
    "stopped</w>": 8127,
    "ascending</w>": 8128,
    "tests</w>": 8129,
    "meets</w>": 8130,
    "mouse</w>": 8131,
    "Robert</w>": 8132,
    "variabl": 8133,
    "hydrogen</w>": 8134,
    "zen</w>": 8135,
    "Won": 8136,
    "be.</w>": 8137,
    "isl": 8138,
    "America.</w>": 8139,
    "courses</w>": 8140,
    "bert</w>": 8141,
    "relativ": 8142,
    "Pal": 8143,
    "Companies</w>": 8144,
    "books,</w>": 8145,
    "understanding.</w>": 8146,
    "depth</w>": 8147,
    "groups,</w>": 8148,
    "co</w>": 8149,
    "ups</w>": 8150,
    "disruption</w>": 8151,
    "pandemic.</w>": 8152,
    "diagnose</w>": 8153,
    "poster</w>": 8154,
    "est,</w>": 8155,
    "values.</w>": 8156,
    "Build</w>": 8157,
    "Although</w>": 8158,
    "vivid</w>": 8159,
    "Ask</w>": 8160,
    "Over</w>": 8161,
    "volume</w>": 8162,
    "children.</w>": 8163,
    "art,</w>": 8164,
    "captures</w>": 8165,
    "keyword</w>": 8166,
    "algorithms.</w>": 8167,
    "precip": 8168,
    "odd.</w>": 8169,
    "phone.</w>": 8170,
    "unsupervised</w>": 8171,
    "lush</w>": 8172,
    "embrac": 8173,
    "mit</w>": 8174,
    "University</w>": 8175,
    "transition</w>": 8176,
    "ball": 8177,
    "component</w>": 8178,
    "ody</w>": 8179,
    "27</w>": 8180,
    "Open</w>": 8181,
    "un</w>": 8182,
    "knowledge,</w>": 8183,
    "appear": 8184,
    "lets</w>": 8185,
    "Friend": 8186,
    "abbit</w>": 8187,
    "lemon</w>": 8188,
    "expan": 8189,
    "API</w>": 8190,
    "delight": 8191,
    "Ocean</w>": 8192,
    "hot": 8193,
    "street</w>": 8194,
    "diseases,</w>": 8195,
    "suppli": 8196,
    "Tal": 8197,
    "onion</w>": 8198,
    "window</w>": 8199,
    "purchasing</w>": 8200,
    "energy-efficient</w>": 8201,
    "approaches</w>": 8202,
    "incess</w>": 8203,
    "ably</w>": 8204,
    "AI,</w>": 8205,
    "ains.</w>": 8206,
    "people's</w>": 8207,
    "Assign</w>": 8208,
    "vehicles.</w>": 8209,
    "GPT-3</w>": 8210,
    "heavily</w>": 8211,
    "context.</w>": 8212,
    "ensures</w>": 8213,
    "27": 8214,
    "link</w>": 8215,
    "brea": 8216,
    "destro": 8217,
    "aul": 8218,
    "i++": 8219,
    "exac": 8220,
    "action,</w>": 8221,
    "notes</w>": 8222,
    "Sun</w>": 8223,
    "prop": 8224,
    "confir": 8225,
    "ately.</w>": 8226,
    "treatment</w>": 8227,
    "5,": 8228,
    "occasion": 8229,
    "ture,</w>": 8230,
    "claim": 8231,
    "jur": 8232,
    "fish,</w>": 8233,
    "generating</w>": 8234,
    "confidence</w>": 8235,
    "William</w>": 8236,
    "cooper": 8237,
    "Divide</w>": 8238,
    "stake": 8239,
    "snow</w>": 8240,
    "agricultural</w>": 8241,
    "Battle</w>": 8242,
    "Ari": 8243,
    "System</w>": 8244,
    "domin": 8245,
    "domain</w>": 8246,
    "veleng": 8247,
    "S,</w>": 8248,
    "enger</w>": 8249,
    "location,</w>": 8250,
    "90": 8251,
    "ranging</w>": 8252,
    "Avoid</w>": 8253,
    "conclusion</w>": 8254,
    "noti": 8255,
    "according": 8256,
    "div></w>": 8257,
    "result,</w>": 8258,
    "bake</w>": 8259,
    "follows:</w>": 8260,
    "drug</w>": 8261,
    "factor": 8262,
    "Bob</w>": 8263,
    "Constitution</w>": 8264,
    "Rights</w>": 8265,
    "Mount": 8266,
    "eco-friendly</w>": 8267,
    "vore": 8268,
    "Fre": 8269,
    "ides</w>": 8270,
    "certaint": 8271,
    "marks</w>": 8272,
    "cel": 8273,
    "Chic": 8274,
    "cube</w>": 8275,
    "categories.</w>": 8276,
    "activity,</w>": 8277,
    "goal.</w>": 8278,
    "rob": 8279,
    "age:</w>": 8280,
    "Network</w>": 8281,
    "programmed</w>": 8282,
    "set,</w>": 8283,
    "Strate": 8284,
    "28": 8285,
    "successfully</w>": 8286,
    "devices.</w>": 8287,
    "judg": 8288,
    "AI.</w>": 8289,
    "Nep": 8290,
    "management,</w>": 8291,
    "Define</w>": 8292,
    "they": 8293,
    "Ed": 8294,
    "efficiently.</w>": 8295,
    "stakehol": 8296,
    "Monitor</w>": 8297,
    "But": 8298,
    "Black</w>": 8299,
    "graphical</w>": 8300,
    "Then</w>": 8301,
    "waveleng": 8302,
    "schools</w>": 8303,
    "lines.</w>": 8304,
    "Think</w>": 8305,
    "ied</w>": 8306,
    "touch</w>": 8307,
    "itude.</w>": 8308,
    "slightly</w>": 8309,
    "grammar": 8310,
    "offered</w>": 8311,
    "Positive</w>": 8312,
    "36</w>": 8313,
    "qualities</w>": 8314,
    "3/": 8315,
    "doctor</w>": 8316,
    "d?</w>": 8317,
    "minimize</w>": 8318,
    "entral</w>": 8319,
    "app.</w>": 8320,
    "Bloc": 8321,
    "raise</w>": 8322,
    "My": 8323,
    "Developing</w>": 8324,
    "AI-based</w>": 8325,
    "Energy</w>": 8326,
    "abilities</w>": 8327,
    "commitment</w>": 8328,
    "synonyms</w>": 8329,
    "files</w>": 8330,
    "ism.</w>": 8331,
    "Automation</w>": 8332,
    "programs.</w>": 8333,
    "loud</w>": 8334,
    "keeps</w>": 8335,
    "Collec": 8336,
    "fies</w>": 8337,
    "transformer</w>": 8338,
    "ov": 8339,
    "defe": 8340,
    "tomatoes,</w>": 8341,
    "vise</w>": 8342,
    "programming.</w>": 8343,
    "established</w>": 8344,
    "Sle": 8345,
    "element": 8346,
    "speak</w>": 8347,
    "portfoli": 8348,
    "coastal</w>": 8349,
    "import</w>": 8350,
    "Vinc": 8351,
    "195": 8352,
    "Recy": 8353,
    "told</w>": 8354,
    "ve?</w>": 8355,
    "Point</w>": 8356,
    "India,</w>": 8357,
    "plication</w>": 8358,
    "restaurants</w>": 8359,
    "cost-effective</w>": 8360,
    "ago</w>": 8361,
    "Cub": 8362,
    "orous</w>": 8363,
    "rewrite</w>": 8364,
    "second": 8365,
    "obstacles</w>": 8366,
    "France,</w>": 8367,
    "suddenly</w>": 8368,
    "Jour": 8369,
    "Chick": 8370,
    "Vis": 8371,
    "------": 8372,
    "shoul": 8373,
    "precedented</w>": 8374,
    "Python,</w>": 8375,
    "Ye": 8376,
    "28</w>": 8377,
    "perfect": 8378,
    "ses": 8379,
    "ually,</w>": 8380,
    "nutrients</w>": 8381,
    "dish.</w>": 8382,
    "aqu": 8383,
    "updates</w>": 8384,
    "entertainment</w>": 8385,
    "International</w>": 8386,
    "bine</w>": 8387,
    "Media</w>": 8388,
    "medium-": 8389,
    "requirements</w>": 8390,
    "Fahrenheit</w>": 8391,
    "phrases</w>": 8392,
    "removing</w>": 8393,
    "ples,</w>": 8394,
    "product,</w>": 8395,
    "awar": 8396,
    "Eve": 8397,
    "eu": 8398,
    "Prot": 8399,
    "compound</w>": 8400,
    "reless</w>": 8401,
    "military</w>": 8402,
    "pronoun": 8403,
    "Den": 8404,
    "partic": 8405,
    "')</w>": 8406,
    "catch": 8407,
    "weeks</w>": 8408,
    "Compute</w>": 8409,
    "indro": 8410,
    "Discus": 8411,
    "omm": 8412,
    "stars.</w>": 8413,
    "elev": 8414,
    "fab": 8415,
    "Book</w>": 8416,
    "ather": 8417,
    "and/": 8418,
    "and/or</w>": 8419,
    "opinions</w>": 8420,
    "corporate</w>": 8421,
    "CE": 8422,
    "Whe": 8423,
    "bags</w>": 8424,
    "Covid": 8425,
    "-term</w>": 8426,
    "lor": 8427,
    "type=\"": 8428,
    "[i]": 8429,
    "ting,</w>": 8430,
    "Hi</w>": 8431,
    "reco": 8432,
    "Negative</w>": 8433,
    "simpler</w>": 8434,
    "Event": 8435,
    "networks.</w>": 8436,
    "millions</w>": 8437,
    "bub": 8438,
    "33": 8439,
    "Bur": 8440,
    "device.</w>": 8441,
    "inner</w>": 8442,
    "Fac": 8443,
    "fication.</w>": 8444,
    "verbs</w>": 8445,
    "ach,</w>": 8446,
    "ried</w>": 8447,
    "wear</w>": 8448,
    "selling</w>": 8449,
    "Japanese</w>": 8450,
    "Nobel</w>": 8451,
    "bank</w>": 8452,
    "icks</w>": 8453,
    "quiet</w>": 8454,
    "deals</w>": 8455,
    "values,</w>": 8456,
    "IN": 8457,
    "ode</w>": 8458,
    "actually</w>": 8459,
    "filling</w>": 8460,
    "bike</w>": 8461,
    "meditation</w>": 8462,
    "data-driven</w>": 8463,
    "volunte": 8464,
    "13.</w>": 8465,
    "Jup": 8466,
    "lot": 8467,
    "utive</w>": 8468,
    "jung": 8469,
    "ary": 8470,
    "500": 8471,
    "Recomm": 8472,
    "mort": 8473,
    "Stay</w>": 8474,
    "audienc": 8475,
    "Conclus": 8476,
    "lowest</w>": 8477,
    "rooms</w>": 8478,
    "(int</w>": 8479,
    "Sk": 8480,
    "ways,</w>": 8481,
    "s\".</w>": 8482,
    "wol": 8483,
    "representative</w>": 8484,
    "Mark</w>": 8485,
    "motivation</w>": 8486,
    "refriger": 8487,
    "disci": 8488,
    "discipl": 8489,
    "better.</w>": 8490,
    "escape</w>": 8491,
    "correctly</w>": 8492,
    "lad": 8493,
    "reason</w>": 8494,
    "ill,</w>": 8495,
    "out?</w>": 8496,
    "p></w>": 8497,
    "impressive</w>": 8498,
    "seeing</w>": 8499,
    "oes</w>": 8500,
    "Brid": 8501,
    "(A": 8502,
    "Sc": 8503,
    "rying</w>": 8504,
    "boiling</w>": 8505,
    "protec": 8506,
    "Inte": 8507,
    "problems,</w>": 8508,
    "Moreover,</w>": 8509,
    "thered</w>": 8510,
    "Washington</w>": 8511,
    "explored</w>": 8512,
    "itself</w>": 8513,
    "10-": 8514,
    "Gover": 8515,
    "Ox": 8516,
    "forwar": 8517,
    "professionals</w>": 8518,
    "leveraging</w>": 8519,
    "expectations</w>": 8520,
    "Dol": 8521,
    "combat</w>": 8522,
    "discovery</w>": 8523,
    "experiences,</w>": 8524,
    "Some": 8525,
    "Technolog": 8526,
    "psychological</w>": 8527,
    "(e.": 8528,
    "tree.</w>": 8529,
    "standar": 8530,
    "insul": 8531,
    "flew</w>": 8532,
    "oppres": 8533,
    "Hey</w>": 8534,
    "ama</w>": 8535,
    "ined</w>": 8536,
    "extinc": 8537,
    "democracy</w>": 8538,
    "Ven": 8539,
    "well,</w>": 8540,
    "muscle</w>": 8541,
    "exhaust": 8542,
    "mes</w>": 8543,
    "bird": 8544,
    "proud</w>": 8545,
    "user.</w>": 8546,
    "agers</w>": 8547,
    "settings</w>": 8548,
    "Declar": 8549,
    "drop</w>": 8550,
    "biodiversit": 8551,
    "ask": 8552,
    "sauce</w>": 8553,
    "gin</w>": 8554,
    "disease,</w>": 8555,
    "hypothes": 8556,
    "pool": 8557,
    "Roman</w>": 8558,
    "English.</w>": 8559,
    "%,</w>": 8560,
    "section</w>": 8561,
    "assistance</w>": 8562,
    "conduct</w>": 8563,
    "tried</w>": 8564,
    "atives.</w>": 8565,
    "Vo": 8566,
    "networks,</w>": 8567,
    "ders.</w>": 8568,
    "alone</w>": 8569,
    "fraud": 8570,
    "hour</w>": 8571,
    "messages</w>": 8572,
    "reports</w>": 8573,
    "possess</w>": 8574,
    "Govern": 8575,
    "ture.</w>": 8576,
    "fraud</w>": 8577,
    "perspective</w>": 8578,
    "experti": 8579,
    "expon": 8580,
    "equations</w>": 8581,
    "alive</w>": 8582,
    "socc": 8583,
    "addition</w>": 8584,
    "dialo": 8585,
    "rows</w>": 8586,
    "obile</w>": 8587,
    "loy</w>": 8588,
    "blue.</w>": 8589,
    "ham</w>": 8590,
    "discovering</w>": 8591,
    "lessons</w>": 8592,
    "High</w>": 8593,
    "hair": 8594,
    "Consider</w>": 8595,
    "sky": 8596,
    "Rain": 8597,
    "participants</w>": 8598,
    "shaped</w>": 8599,
    "slic": 8600,
    "July</w>": 8601,
    "\"He</w>": 8602,
    "instruction</w>": 8603,
    "sin": 8604,
    "ston</w>": 8605,
    "content": 8606,
    "oranges</w>": 8607,
    "etc.": 8608,
    "route</w>": 8609,
    "interaction</w>": 8610,
    "California</w>": 8611,
    "sentiment.</w>": 8612,
    "impossible</w>": 8613,
    "-></w>": 8614,
    "complaint": 8615,
    "months.</w>": 8616,
    "document": 8617,
    "medit": 8618,
    "Sti": 8619,
    "carries</w>": 8620,
    "anxiety</w>": 8621,
    "ble.</w>": 8622,
    "Spain</w>": 8623,
    "pe</w>": 8624,
    "Bang": 8625,
    "145.</w>": 8626,
    "remark": 8627,
    "discussed</w>": 8628,
    "enjoying</w>": 8629,
    "bond</w>": 8630,
    "minimal</w>": 8631,
    "ret": 8632,
    "habitat</w>": 8633,
    "inspir": 8634,
    "calls</w>": 8635,
    "aws</w>": 8636,
    "mainly</w>": 8637,
    "Tes": 8638,
    "jumped</w>": 8639,
    "share": 8640,
    "Lis": 8641,
    "forced</w>": 8642,
    "s.\"</w>": 8643,
    "picture</w>": 8644,
    "(NLP)</w>": 8645,
    "ners</w>": 8646,
    "loyalty.</w>": 8647,
    "exclus": 8648,
    "predictions.</w>": 8649,
    "chosen</w>": 8650,
    "remaining</w>": 8651,
    "ke,</w>": 8652,
    "style.</w>": 8653,
    "resume</w>": 8654,
    "drawing</w>": 8655,
    "eries</w>": 8656,
    "convenient</w>": 8657,
    "table": 8658,
    "Input:</w>": 8659,
    "privac": 8660,
    "pick": 8661,
    "ench": 8662,
    "majority</w>": 8663,
    "bag</w>": 8664,
    "Know": 8665,
    "stocks</w>": 8666,
    "ever-": 8667,
    "rub": 8668,
    "ne</w>": 8669,
    "majestic</w>": 8670,
    "Security</w>": 8671,
    "retriev": 8672,
    "Apri": 8673,
    "April</w>": 8674,
    "behavior,</w>": 8675,
    "sun.</w>": 8676,
    "limit": 8677,
    "value": 8678,
    "anut</w>": 8679,
    "ety.</w>": 8680,
    "ikipe": 8681,
    "sometimes</w>": 8682,
    "pain</w>": 8683,
    "emergency</w>": 8684,
    "efficient.</w>": 8685,
    "bloom": 8686,
    "-up</w>": 8687,
    "fold</w>": 8688,
    "Moder": 8689,
    "ot": 8690,
    "packed</w>": 8691,
    "ON</w>": 8692,
    "supports</w>": 8693,
    "First": 8694,
    "Defin": 8695,
    "erarch": 8696,
    "practices.</w>": 8697,
    "lonel": 8698,
    "acking</w>": 8699,
    "Apples</w>": 8700,
    "$3": 8701,
    "that": 8702,
    "ker</w>": 8703,
    "collective</w>": 8704,
    "however,</w>": 8705,
    "percent</w>": 8706,
    "subscrip": 8707,
    "special": 8708,
    "99</w>": 8709,
    "unknown</w>": 8710,
    "castle</w>": 8711,
    "lots</w>": 8712,
    "AS": 8713,
    "drastically</w>": 8714,
    "Noun": 8715,
    "Tra": 8716,
    "Central</w>": 8717,
    "enhanced</w>": 8718,
    "batt": 8719,
    "IT</w>": 8720,
    "wider</w>": 8721,
    "almon": 8722,
    "what's</w>": 8723,
    "culture,</w>": 8724,
    "relatively</w>": 8725,
    "application.</w>": 8726,
    "ley</w>": 8727,
    "black": 8728,
    "Rest": 8729,
    "failure</w>": 8730,
    "Industri": 8731,
    "beat</w>": 8732,
    "unprecedented</w>": 8733,
    "institu": 8734,
    "research,</w>": 8735,
    "breath</w>": 8736,
    "Answ": 8737,
    "thri": 8738,
    "24.</w>": 8739,
    "boundaries</w>": 8740,
    "gious</w>": 8741,
    "pollutants</w>": 8742,
    "that,</w>": 8743,
    "care,</w>": 8744,
    "relationships,</w>": 8745,
    "interactions</w>": 8746,
    "rowing</w>": 8747,
    "cloud": 8748,
    "ghter</w>": 8749,
    "graphics</w>": 8750,
    "Buil": 8751,
    "combined.</w>": 8752,
    "organization.</w>": 8753,
    "percentage</w>": 8754,
    "relationships.</w>": 8755,
    "legisl": 8756,
    "encryption</w>": 8757,
    "drinking</w>": 8758,
    "led,</w>": 8759,
    "obt": 8760,
    "bols</w>": 8761,
    "Typ": 8762,
    "Rising</w>": 8763,
    "represents</w>": 8764,
    "debugging</w>": 8765,
    "Cut</w>": 8766,
    "preferences</w>": 8767,
    "Business": 8768,
    "layout</w>": 8769,
    "rate,</w>": 8770,
    "**": 8771,
    "gluc": 8772,
    "giant</w>": 8773,
    "propor": 8774,
    "Green</w>": 8775,
    "conducted</w>": 8776,
    "Working</w>": 8777,
    "cott": 8778,
    "4-": 8779,
    "resolve</w>": 8780,
    "automating</w>": 8781,
    "reverse</w>": 8782,
    "diet.</w>": 8783,
    "locate</w>": 8784,
    "Orange</w>": 8785,
    "7.": 8786,
    "5]</w>": 8787,
    "guidel": 8788,
    "to.</w>": 8789,
    "35.</w>": 8790,
    "sun,</w>": 8791,
    "footprint": 8792,
    "Topic:</w>": 8793,
    "statistical</w>": 8794,
    "Turn</w>": 8795,
    "fuels,</w>": 8796,
    "temperature,</w>": 8797,
    "inser": 8798,
    "doesn't</w>": 8799,
    "databases</w>": 8800,
    "navigate</w>": 8801,
    "right.</w>": 8802,
    "rays</w>": 8803,
    "ating.</w>": 8804,
    "vacu": 8805,
    "22</w>": 8806,
    "arith": 8807,
    "morning,</w>": 8808,
    "keywords</w>": 8809,
    "ground.</w>": 8810,
    "Estimate</w>": 8811,
    "Food</w>": 8812,
    "sions.</w>": 8813,
    "police</w>": 8814,
    "correl": 8815,
    "A-": 8816,
    "videos</w>": 8817,
    "choice.</w>": 8818,
    "gravitational</w>": 8819,
    "Rank</w>": 8820,
    "stone</w>": 8821,
    "divide</w>": 8822,
    "closely</w>": 8823,
    "crop</w>": 8824,
    "attitude</w>": 8825,
    "Grand</w>": 8826,
    "customer": 8827,
    "classical</w>": 8828,
    "accordingly.</w>": 8829,
    "edd": 8830,
    "Sust": 8831,
    "Samsun": 8832,
    "strong,</w>": 8833,
    "John,</w>": 8834,
    "controls</w>": 8835,
    "Electric</w>": 8836,
    "bill</w>": 8837,
    "ecosystems.</w>": 8838,
    "waiting</w>": 8839,
    "sport</w>": 8840,
    "continent</w>": 8841,
    "evolution</w>": 8842,
    "rating</w>": 8843,
    "horror</w>": 8844,
    "stop": 8845,
    "potatoes</w>": 8846,
    "Gol": 8847,
    "generation</w>": 8848,
    "rhyth": 8849,
    "u.</w>": 8850,
    "heated</w>": 8851,
    "uncover</w>": 8852,
    "wood</w>": 8853,
    "consumption.</w>": 8854,
    "[\"": 8855,
    "label</w>": 8856,
    "optimal</w>": 8857,
    "head.</w>": 8858,
    "het": 8859,
    "preserving</w>": 8860,
    "owner": 8861,
    "readers</w>": 8862,
    "date.</w>": 8863,
    "busy</w>": 8864,
    "property</w>": 8865,
    "others,</w>": 8866,
    "Tru": 8867,
    "ering.</w>": 8868,
    "updated</w>": 8869,
    "cardi": 8870,
    "tow": 8871,
    "cars,</w>": 8872,
    "message.</w>": 8873,
    "option": 8874,
    "depends</w>": 8875,
    "reaches</w>": 8876,
    "vision,</w>": 8877,
    "India.</w>": 8878,
    "symbols</w>": 8879,
    "tocur": 8880,
    "tocurren": 8881,
    "away,</w>": 8882,
    "nutritious</w>": 8883,
    "calming</w>": 8884,
    "profile</w>": 8885,
    "algorithms,</w>": 8886,
    "description.</w>": 8887,
    "initial</w>": 8888,
    "surface.</w>": 8889,
    "adjective</w>": 8890,
    "elled</w>": 8891,
    "[3,</w>": 8892,
    "in'</w>": 8893,
    "facilitate</w>": 8894,
    "ication</w>": 8895,
    "b,</w>": 8896,
    "Fam": 8897,
    "equipment</w>": 8898,
    "Return</w>": 8899,
    "preventing</w>": 8900,
    "choic": 8901,
    "investments</w>": 8902,
    "standards</w>": 8903,
    "Charles</w>": 8904,
    "word,</w>": 8905,
    "titles</w>": 8906,
    "HTT": 8907,
    "ocratic</w>": 8908,
    "Thom": 8909,
    "Mac": 8910,
    "rhyme</w>": 8911,
    "Without</w>": 8912,
    "cuisine</w>": 8913,
    "Gatsby</w>": 8914,
    "sleeping</w>": 8915,
    "manageable</w>": 8916,
    "button</w>": 8917,
    "low.</w>": 8918,
    "ease</w>": 8919,
    "deliver</w>": 8920,
    "farming</w>": 8921,
    "don’t</w>": 8922,
    "large,</w>": 8923,
    "teachers</w>": 8924,
    "so,</w>": 8925,
    "volu": 8926,
    "volutional</w>": 8927,
    "appeared</w>": 8928,
    "happiness</w>": 8929,
    "weath": 8930,
    "streamline</w>": 8931,
    "ers'</w>": 8932,
    "Product:</w>": 8933,
    "bered</w>": 8934,
    "Russia</w>": 8935,
    "enthusias": 8936,
    "forests</w>": 8937,
    "Europe.</w>": 8938,
    "online.</w>": 8939,
    "atoms</w>": 8940,
    "mood</w>": 8941,
    "synthes": 8942,
    "cessive</w>": 8943,
    "deploy": 8944,
    "ries.</w>": 8945,
    "transparen": 8946,
    "propos": 8947,
    "Foc": 8948,
    "observe</w>": 8949,
    "soda</w>": 8950,
    "combining</w>": 8951,
    "room,</w>": 8952,
    "wings</w>": 8953,
    "Inc.</w>": 8954,
    "yoga</w>": 8955,
    "brilli": 8956,
    "table,</w>": 8957,
    "ins.</w>": 8958,
    "\"It</w>": 8959,
    "('": 8960,
    "long,</w>": 8961,
    "ization.</w>": 8962,
    "sed.</w>": 8963,
    "car,</w>": 8964,
    "washing</w>": 8965,
    "rises</w>": 8966,
    "lake</w>": 8967,
    "stages</w>": 8968,
    "itely</w>": 8969,
    "ala</w>": 8970,
    "combines</w>": 8971,
    "Clo": 8972,
    "ill.</w>": 8973,
    "Bob": 8974,
    "printing</w>": 8975,
    "Tokyo</w>": 8976,
    "an-": 8977,
    "ns,</w>": 8978,
    "ed_": 8979,
    "Four</w>": 8980,
    "ocrac": 8981,
    "circu": 8982,
    "ai</w>": 8983,
    "struggles</w>": 8984,
    "strength,</w>": 8985,
    "cozy</w>": 8986,
    "nouns</w>": 8987,
    "conso": 8988,
    "consumers</w>": 8989,
    "diagnosis</w>": 8990,
    "solar,</w>": 8991,
    "illustrate</w>": 8992,
    "consuming</w>": 8993,
    "ide.</w>": 8994,
    "sending</w>": 8995,
    "promin": 8996,
    "gue,</w>": 8997,
    "automatically</w>": 8998,
    "surrounding</w>": 8999,
    "install</w>": 9000,
    "song.</w>": 9001,
    "60": 9002,
    "truth</w>": 9003,
    "contributions</w>": 9004,
    "Mul": 9005,
    "engagement.</w>": 9006,
    "olog": 9007,
    "ades</w>": 9008,
    "Noinput</w>": 9009,
    "esthe": 9010,
    "constant</w>": 9011,
    "needs,</w>": 9012,
    "camp": 9013,
    "chatbots</w>": 9014,
    "mathematics</w>": 9015,
    "160.</w>": 9016,
    "Assi": 9017,
    "tis": 9018,
    "I'd</w>": 9019,
    "Service</w>": 9020,
    "orange,</w>": 9021,
    "statements</w>": 9022,
    "iff": 9023,
    "raised</w>": 9024,
    "Blue</w>": 9025,
    "anywhere</w>": 9026,
    "innovation</w>": 9027,
    "closed</w>": 9028,
    "Jupit": 9029,
    "green,</w>": 9030,
    "markets</w>": 9031,
    "distribution</w>": 9032,
    "Self-": 9033,
    "otic</w>": 9034,
    "pup": 9035,
    "plants,</w>": 9036,
    "rice</w>": 9037,
    "ting.</w>": 9038,
    "palindro": 9039,
    "supplies</w>": 9040,
    "Sustain": 9041,
    "celebrate</w>": 9042,
    "fertili": 9043,
    "aver": 9044,
    "vegetarian</w>": 9045,
    "tourist</w>": 9046,
    "tap": 9047,
    "reliance</w>": 9048,
    "topics.</w>": 9049,
    "ns.</w>": 9050,
    "accessed</w>": 9051,
    "lists</w>": 9052,
    "tempor": 9053,
    "browser": 9054,
    "ach.</w>": 9055,
    "media.</w>": 9056,
    "everyone.</w>": 9057,
    "setting.</w>": 9058,
    "DE": 9059,
    "extra": 9060,
    "append": 9061,
    "vary</w>": 9062,
    "Dream": 9063,
    "hearing</w>": 9064,
    "conv": 9065,
    "word:</w>": 9066,
    "errors.</w>": 9067,
    "desert</w>": 9068,
    "shing</w>": 9069,
    "23</w>": 9070,
    "stood</w>": 9071,
    "liquid</w>": 9072,
    "grammatical</w>": 9073,
    "branches</w>": 9074,
    "quickly,</w>": 9075,
    "flavor</w>": 9076,
    "Revolution": 9077,
    "amin": 9078,
    "chron": 9079,
    "dium</w>": 9080,
    "sweet": 9081,
    "processor</w>": 9082,
    "seeks</w>": 9083,
    "list,</w>": 9084,
    "creation</w>": 9085,
    "Clean</w>": 9086,
    "influential</w>": 9087,
    "iO": 9088,
    "announced</w>": 9089,
    "furniture</w>": 9090,
    "Well": 9091,
    "estern</w>": 9092,
    "simply</w>": 9093,
    "gall": 9094,
    "Break</w>": 9095,
    "countries,</w>": 9096,
    "marked</w>": 9097,
    "revers": 9098,
    "preferences.</w>": 9099,
    "thing,</w>": 9100,
    "42</w>": 9101,
    "answer.</w>": 9102,
    "penal": 9103,
    "Hon": 9104,
    "corner</w>": 9105,
    "roll</w>": 9106,
    "name.</w>": 9107,
    "shine</w>": 9108,
    "D)</w>": 9109,
    "dimensional</w>": 9110,
    "tallest</w>": 9111,
    "grand</w>": 9112,
    "by.</w>": 9113,
    "trends,</w>": 9114,
    "algorithm.</w>": 9115,
    "eth</w>": 9116,
    "James</w>": 9117,
    "White</w>": 9118,
    "phins</w>": 9119,
    "gmented</w>": 9120,
    "Gor": 9121,
    "models,</w>": 9122,
    "articles</w>": 9123,
    "conscious</w>": 9124,
    "total": 9125,
    "simile</w>": 9126,
    "becomes</w>": 9127,
    ".j": 9128,
    "videos,</w>": 9129,
    "quantity</w>": 9130,
    "president</w>": 9131,
    "interro": 9132,
    "gotten</w>": 9133,
    "manager</w>": 9134,
    "less.</w>": 9135,
    "Cat</w>": 9136,
    "ander</w>": 9137,
    "sophisticated</w>": 9138,
    "fron": 9139,
    "fought</w>": 9140,
    "industry,</w>": 9141,
    "remot": 9142,
    "season": 9143,
    "economy,</w>": 9144,
    "Blu": 9145,
    "-of-": 9146,
    "°F</w>": 9147,
    "children's</w>": 9148,
    "population.</w>": 9149,
    "Regular</w>": 9150,
    "Ant": 9151,
    "lines,</w>": 9152,
    "on's</w>": 9153,
    "als:</w>": 9154,
    "consul": 9155,
    "quality.</w>": 9156,
    "juice</w>": 9157,
    "significance</w>": 9158,
    "point.</w>": 9159,
    "Tower</w>": 9160,
    "tac": 9161,
    "control,</w>": 9162,
    "ion:</w>": 9163,
    "mostly</w>": 9164,
    "charge</w>": 9165,
    "books.</w>": 9166,
    "attending</w>": 9167,
    "happened</w>": 9168,
    "cm.</w>": 9169,
    "right,</w>": 9170,
    "gold</w>": 9171,
    "Writing</w>": 9172,
    "culture.</w>": 9173,
    "month.</w>": 9174,
    "cash</w>": 9175,
    "cloves</w>": 9176,
    "Deci": 9177,
    "Linux</w>": 9178,
    "very,</w>": 9179,
    "cheer": 9180,
    "fertiliz": 9181,
    "ulation</w>": 9182,
    "mitigate</w>": 9183,
    "adapted</w>": 9184,
    "Nature</w>": 9185,
    "Air</w>": 9186,
    "Prime</w>": 9187,
    "welcom": 9188,
    "annual</w>": 9189,
    "item.</w>": 9190,
    "LED</w>": 9191,
    ".org/": 9192,
    "unauthorized</w>": 9193,
    "view.</w>": 9194,
    "purchase.</w>": 9195,
    "achievable</w>": 9196,
    "there!</w>": 9197,
    "China,</w>": 9198,
    "-1</w>": 9199,
    "h.</w>": 9200,
    "hurric": 9201,
    "</p></w>": 9202,
    "agree</w>": 9203,
    "up-to-": 9204,
    "happen": 9205,
    "user-friendly</w>": 9206,
    "Going</w>": 9207,
    "____</w>": 9208,
    "storage,</w>": 9209,
    "periodic</w>": 9210,
    "engu": 9211,
    "here.</w>": 9212,
    "race</w>": 9213,
    "forever</w>": 9214,
    "SEO</w>": 9215,
    "sleep,</w>": 9216,
    "loan</w>": 9217,
    "grateful</w>": 9218,
    "understanding,</w>": 9219,
    "instructions.</w>": 9220,
    "largely</w>": 9221,
    "projects.</w>": 9222,
    "yl": 9223,
    "chir": 9224,
    "Nations</w>": 9225,
    "example": 9226,
    "radiation</w>": 9227,
    "list:</w>": 9228,
    "Korea</w>": 9229,
    "article,</w>": 9230,
    "unemployment</w>": 9231,
    "mind?</w>": 9232,
    "Wall</w>": 9233,
    "Pic": 9234,
    "swimming</w>": 9235,
    "21": 9236,
    "Plant</w>": 9237,
    "games,</w>": 9238,
    "ton,</w>": 9239,
    "execute</w>": 9240,
    "disp": 9241,
    "Test</w>": 9242,
    "Plan": 9243,
    "beneath</w>": 9244,
    "hit</w>": 9245,
    "host</w>": 9246,
    "assign</w>": 9247,
    "mother</w>": 9248,
    "Joe</w>": 9249,
    "aster": 9250,
    "pleasant</w>": 9251,
    "fur</w>": 9252,
    "unknow": 9253,
    "tack": 9254,
    "profound</w>": 9255,
    "it?</w>": 9256,
    "User": 9257,
    "strengths</w>": 9258,
    "vote</w>": 9259,
    "exercises</w>": 9260,
    "Galax": 9261,
    "anz": 9262,
    "icy</w>": 9263,
    "guit": 9264,
    "pped</w>": 9265,
    "Spe": 9266,
    "covers</w>": 9267,
    "paper.</w>": 9268,
    "ches.</w>": 9269,
    "chill</w>": 9270,
    "dependence</w>": 9271,
    "Blockchain</w>": 9272,
    "idat": 9273,
    "blog": 9274,
    "p>": 9275,
    "Subject:</w>": 9276,
    "determining</w>": 9277,
    "lem": 9278,
    "objects.</w>": 9279,
    "cab": 9280,
    ",\"": 9281,
    "Financ": 9282,
    "exercise,</w>": 9283,
    "ological</w>": 9284,
    "Install</w>": 9285,
    "complic": 9286,
    "with.</w>": 9287,
    "greatly</w>": 9288,
    "Octo": 9289,
    "ther.</w>": 9290,
    "lay</w>": 9291,
    "painted</w>": 9292,
    "integer</w>": 9293,
    "Lou": 9294,
    "Muse": 9295,
    "nes": 9296,
    "ast.</w>": 9297,
    "imperative</w>": 9298,
    "node</w>": 9299,
    "salt,</w>": 9300,
    "Albert</w>": 9301,
    "agreement</w>": 9302,
    "operations.</w>": 9303,
    "mead": 9304,
    "spect": 9305,
    "1]</w>": 9306,
    "turned</w>": 9307,
    "lock": 9308,
    "mush": 9309,
    "Dele": 9310,
    "blend</w>": 9311,
    "result.</w>": 9312,
    "desk": 9313,
    "electronic</w>": 9314,
    "criteria</w>": 9315,
    "tooth": 9316,
    "anting</w>": 9317,
    "ned.</w>": 9318,
    "file</w>": 9319,
    "ible</w>": 9320,
    "Sing": 9321,
    "ism,</w>": 9322,
    "Does</w>": 9323,
    "question:</w>": 9324,
    "Hello,</w>": 9325,
    "sus</w>": 9326,
    "agram</w>": 9327,
    "dia": 9328,
    "numbers:</w>": 9329,
    "brightly</w>": 9330,
    "ppet</w>": 9331,
    "Character": 9332,
    "farmer</w>": 9333,
    "empathy</w>": 9334,
    "reader</w>": 9335,
    "conditions,</w>": 9336,
    "gradi": 9337,
    "Park</w>": 9338,
    "gran": 9339,
    "play,</w>": 9340,
    "specific": 9341,
    "avoc": 9342,
    "suit</w>": 9343,
    "meant</w>": 9344,
    "Thir": 9345,
    "cleaner</w>": 9346,
    "easil": 9347,
    "generations</w>": 9348,
    "to-do</w>": 9349,
    "differ</w>": 9350,
    "request</w>": 9351,
    "ventured</w>": 9352,
    "struggle</w>": 9353,
    "ombi": 9354,
    "lyrics</w>": 9355,
    "tools,</w>": 9356,
    "down.</w>": 9357,
    "laughter</w>": 9358,
    "tone.</w>": 9359,
    "goktugGPT": 9360,
    "applying</w>": 9361,
    "Maj": 9362,
    "7,": 9363,
    "ambi": 9364,
    "proof</w>": 9365,
    "aching</w>": 9366,
    "basis</w>": 9367,
    "back.</w>": 9368,
    "Reverse</w>": 9369,
    "Laun": 9370,
    "Si": 9371,
    "nur": 9372,
    "Val": 9373,
    "usion</w>": 9374,
    "ories.</w>": 9375,
    "orb": 9376,
    "Discuss</w>": 9377,
    "options,</w>": 9378,
    "wil": 9379,
    "Red": 9380,
    "circul": 9381,
    "sustainability</w>": 9382,
    "Samsung</w>": 9383,
    "Cle": 9384,
    "Ken": 9385,
    "idea.</w>": 9386,
    "cars.</w>": 9387,
    "guidance</w>": 9388,
    "soon.</w>": 9389,
    "clean,</w>": 9390,
    "time-": 9391,
    "sand</w>": 9392,
    "speeds</w>": 9393,
    "ledger</w>": 9394,
    "Lord</w>": 9395,
    "attractive</w>": 9396,
    "boat</w>": 9397,
    "name=\"": 9398,
    "relig": 9399,
    "ate:</w>": 9400,
    "Home</w>": 9401,
    "dones": 9402,
    "official</w>": 9403,
    "Super": 9404,
    "Gir": 9405,
    "alert</w>": 9406,
    "wellbeing.</w>": 9407,
    "visibility</w>": 9408,
    "identified</w>": 9409,
    "occup": 9410,
    "essay.</w>": 9411,
    "banana,</w>": 9412,
    "cing</w>": 9413,
    "glad</w>": 9414,
    "absorb</w>": 9415,
    "industries</w>": 9416,
    "2019</w>": 9417,
[...]
